<PAD>
<UNK>
<BOS>
<EOS>
<MASK>
<USER>
<ASSISTANT>
<SYSTEM>
<DOC>
<END_DOC>
<DOC_ID>
<EVIDENCE>
<REASONING>
<END_REASONING>
<FINAL>
<END_FINAL>
<TOOL_CALL>
<TOOL_ARGS>
<END_TOOL_CALL>
<TOOL_RESPONSE>
<JSON>
<END_JSON>
<XML>
<END_XML>
<YAML>
<END_YAML>
<end_section>
<title>
<subtitle>
<bullet>
<pt>
<en>
<es>
<fr>
<de>
<it>
<zh>
<ar>
<ru>
<hi>
<user>
<assistant>
<system>
<sep>
<start>
<end>
<code>
<end_code>
<func>
<var>
<def>
<return>
<if>
<else>
<for>
<while>
<import>
<class>
<math>
<sum>
<prod>
<frac>
<int>
<log>
<sqrt>
<br>
<p>
<ul>
<li>
<table>
<tr>
<td>
<h1>
<h2>
<div>
<span>
</p>
</ul>
</table>
<style_formal>
<style_informal>
<length_short>
<length_medium>
<length_long>
<sentiment_positive>
<sentiment_negative>
<sentiment_neutral>
<usd>
<eur>
<brl>
<kg>
<cm>
<m>
<km>
<liters>
<percent>
<extra_0>
<extra_1>
<extra_2>
<extra_3>
<extra_4>
<extra_5>
<extra_6>
<extra_7>
<extra_8>
<extra_9>
<extra_10>
<extra_11>
<extra_12>
<extra_13>
<extra_14>
<extra_15>
<extra_16>
<extra_17>
<extra_18>
<extra_19>
<extra_20>
<extra_21>
<extra_22>
<extra_23>
<extra_24>
<extra_25>
<extra_26>
<extra_27>
<extra_28>
<extra_29>
<extra_30>
<extra_31>
<extra_32>
<extra_33>
<extra_34>
<extra_35>
<extra_36>
<extra_37>
<extra_38>
<extra_39>
<extra_40>
<extra_41>
<extra_42>
<extra_43>
<extra_44>
<extra_45>
<extra_46>
<extra_47>
<extra_48>
<extra_49>
<extra_50>
<extra_51>
<extra_52>
<extra_53>
<extra_54>
<extra_55>
<extra_56>
<extra_57>
<extra_58>
<extra_59>
<extra_60>
<extra_61>
<extra_62>
<extra_63>
<extra_64>
<extra_65>
<extra_66>
<extra_67>
<extra_68>
<extra_69>
<extra_70>
<extra_71>
<extra_72>
<extra_73>
<extra_74>
<extra_75>
<extra_76>
<extra_77>
<extra_78>
<extra_79>
<extra_80>
<extra_81>
<extra_82>
<extra_83>
<extra_84>
<extra_85>
<extra_86>
<extra_87>
<extra_88>
<extra_89>
<extra_90>
<extra_91>
<extra_92>
<extra_93>
<extra_94>
<extra_95>
<extra_96>
<extra_97>
<extra_98>
<extra_99>
Ā
ā
Ă
ă
Ą
ą
Ć
ć
Ĉ
ĉ
Ċ
ċ
Č
č
Ď
ď
Đ
đ
Ē
ē
Ĕ
ĕ
Ė
ė
Ę
ę
Ě
ě
Ĝ
ĝ
Ğ
ğ
Ġ
!
"
#
$
%
&
'
(
)
*
+
,
-
.
/
0
1
2
3
4
5
6
7
8
9
:
;
<
=
>
?
@
A
B
C
D
E
F
G
H
I
J
K
L
M
N
O
P
Q
R
S
T
U
V
W
X
Y
Z
[
\
]
^
_
`
a
b
c
d
e
f
g
h
i
j
k
l
m
n
o
p
q
r
s
t
u
v
w
x
y
z
{
|
}
~
ġ
Ģ
ģ
Ĥ
ĥ
Ħ
ħ
Ĩ
ĩ
Ī
ī
Ĭ
ĭ
Į
į
İ
ı
Ĳ
ĳ
Ĵ
ĵ
Ķ
ķ
ĸ
Ĺ
ĺ
Ļ
ļ
Ľ
ľ
Ŀ
ŀ
Ł
ł
¡
¢
£
¤
¥
¦
§
¨
©
ª
«
¬
Ń
®
¯
°
±
²
³
´
µ
¶
·
¸
¹
º
»
¼
½
¾
¿
À
Á
Â
Ã
Ä
Å
Æ
Ç
È
É
Ê
Ë
Ì
Í
Î
Ï
Ð
Ñ
Ò
Ó
Ô
Õ
Ö
×
Ø
Ù
Ú
Û
Ü
Ý
Þ
ß
à
á
â
ã
ä
å
æ
ç
è
é
ê
ë
ì
í
î
ï
ð
ñ
ò
ó
ô
õ
ö
÷
ø
ù
ú
û
ü
ý
þ
ÿ
Ġa
Ġd
Ġt
er
in
es
Ġs
Ġp
en
Ġc
Ġo
ar
or
an
on
Ġe
is
he
as
Ġm
os
Ġde
qu
te
re
Ġf
al
Ġn
om
Ġthe
it
ad
ou
Ġqu
le
ti
Ġb
Ã£
am
Ã£o
Ġin
um
Ġw
ic
Ġque
nd
ed
ent
ia
ra
Ġse
Ġv
Ġof
ĠA
ro
ĠS
id
el
âĢ
Ġcom
ing
ta
Ġh
Ġl
ĠC
Ġ1
Ġto
Ġes
Ã§
us
Ġum
em
im
at
Ġ(
do
ĠE
Ġand
il
Ġ2
ĠM
ol
Ġre
ĠT
Ã¡
Ġpar
Ã©
ĠP
ir
la
se
Ġ<
ri
Ġcon
Ġas
to
UR
URL
Ġdo
Ġg
ĠN
Ġno
tion
ur
av
ĠD
Ġth
ec
ĠI
un
ĠB
Ġem
Ġ"
Ġpara
ul
ĠâĢ
ente
res
oc
ter
Ġ-
ig
ĠR
Ġfor
th
Ġda
ate
ch
ĠnÃ£o
Ġal
ce
Ġis
ĠL
ĠO
ĠF
iv
Ġsu
ÃŃ
Ãª
ĠH
ado
ando
ut
ĠJ
ion
ha
Ġ'
Ġuma
Ġan
so
Ġon
ag
Ã§Ã£o
Ġme
ist
od
ers
Ġat
Ġpor
ĠG
ĠW
Ġma
Ã³
Ġbe
ly
ho
Ġwas
ade
and
Ġpro
ab
ada
gor
Ġos
Ġdes
st
Ġen
Ġex
ve
va
ver
ted
Ġj
ac
Ġest
ĠÃ©
Ġdis
Ġna
gu
ĠÃ
tic
Ġap
if
ber
Ġar
ith
io
Ġr
ategor
Ġac
Ġele
et
ĠThe
iz
ĠâĢĶ
ĠV
Ġper
ud
ategory
ĠU
Ġby
ito
Ġfr
inha
lo
po
ation
Ġwith
Category
ens
Ġser
Ġthat
Ġle
ei
ess
Ġpr
Ġcomo
era
end
ere
ant
Ġmais
Ġres
Ġit
ma
Ġwh
.âĢ
ard
Ġesta
tr
ass
ob
ip
ay
ap
ocÃª
ld
ort
Ġent
est
ran
Ġch
ai
ew
az
ĠâĢĵ
op
ian
Ġsua
Ġim
nc
ava
-se
per
ot
Ġeu
Ã§a
ge
Ġfrom
ido
amente
ento
ĠK
Ġmu
Ġcont
Ġseu
ity
Ġao
Ġela
Ġter
our
Ġcomp
Ġab
Ġor
Ġmas
Ġhe
les
Ġco
Ġpre
ary
vel
Ġout
ow
og
TC
uc
Ġ3
UTC
Ġpel
con
mo
ĠÃł
da
alk
.==
Ã©m
âĢĵ
que
Ġhav
ment
ire
Ġou
Ġtem
ial
ida
Ġnot
co
Ġpod
ub
Ãµ
Ġera
Ġ|
ez
ther
up
for
idade
ost
Ġdos
Ġam
Ġy
Ãµes
ep
aÃ§Ã£o
Ġol
Ġ0
Ġfo
Ġcor
ug
ies
ear
ĠIn
oss
ĠvocÃª
Ġad
ke
ĠCh
anto
)*
fer
ome
Ġte
ts
Ġgr
ov
.âĢĶ
Ġ==
Ġsem
ces
ados
Ġass
Ġcas
Ġare
ong
age
Ġus
mente
ica
.-
Ġolh
Ġver
ĠNÃ£o
Ġcar
cl
endo
ie
all
ich
ill
ria
ante
ĠQ
und
ine
Ġmes
tor
Ġcl
ord
ite
tes
Ġestava
Ġpe
ould
igh
Ġsob
ign
eu
ĠMar
gh
mer
ue
Ġhis
ks
Ġtra
Ġfaz
ĠEu
Ġra
enti
ast
Ġthis
rit
rio
Ġalg
ame
ust
ix
Ġtr
uss
ĠTh
ure
ish
me
lic
Ġimp
Ġman
Ġun
ĠDe
Ãº
Ãªnc
Ġ4
Ġesc
pe
br
dit
vi
Ġst
ase
),
Ġfoi
ĠAl
ĠUn
ress
ĠCom
Ġesp
Ġdele
tiv
iam
ual
Ġquando
ca
tern
::
ais
Ġag
orn
).
ara
ura
talk
ĠestÃ¡
Ġdas
Ã§Ãµes
Ġdisse
Ġnos
fic
ound
Ġdisc
Ġisso
Ġmor
Âł
Ġpla
Ġmuito
Ġcons
Ġfil
Ġaf
Ġtinha
Ġsobre
ĠEle
nt
tem
Ġ5
amos
inal
Ġ||
ora
ide
Ġrec
ond
ble
Ġsh
Ã§o
iu
ras
eg
ira
Ġpass
ated
esse
amb
Ġrep
ĠY
Ġsab
Ġwhich
ina
Ġexp
Ġvez
ĠSe
Ġwere
man
aram
ias
her
Ġpes
Ġob
ĠAs
Ġcol
Ġmeu
ios
ain
Ġminha
ous
ior
Ġmen
Ġhas
ical
amp
Ġquer
Ġseus
Ãªncia
Ġfal
pre
udo
ĠAr
cis
ember
Ġfic
ult
de
ĠMas
Ġche
Ġvol
enh
Ġmar
Ġdiz
Ġ6
Ġaqu
art
ough
Ġir
Ġhave
Ġcab
ĠatÃ©
Ġartic
ork
inh
ont
ive
Ġalso
ĠHe
wn
Ġsegu
ell
ris
Ġbut
ence
inda
Ġinter
ĠâĢľ
Ġpres
Ġk
duc
Ġdiscuss
dos
out
pos
Ġso
ican
adas
Ġhom
The
ater
Ġcer
ĠQu
ela
Ġsta
ile
Ġcan
Ġbo
ĠEs
âĢĿ
iss
Ġcois
Ġsp
ĠAn
Ġnum
one
ct
Ġfir
ik
ores
Ġmesmo
Ġqual
Ġgo
Ġincl
rib
ime
ĠNo
rig
pois
."
ne
iro
Ġbem
Ġ*
ambÃ©m
Ġdire
ĠSt
ĠIt
indo
aria
cho
ros
Ġca
tions
ak
Ġsub
low
elh
Ġdiscussion
Ġ7
Ġentre
Ġev
Ġsa
Ġpelo
Ġhad
Ġpage
uary
Ġcam
Ġind
Ã¢
ĠEla
ivers
Ġresp
Ġro
Ġdif
til
Ġpo
Ġyou
Ã³s
enc
Ġplay
eira
Ã´
edia
ck
ry
ons
ico
Ġ--
ĠjÃ¡
unt
ĠtambÃ©m
ang
hed
ib
min
ja
land
sa
ĠAp
ph
ÃŃc
Ġmo
Ġpela
tive
Ġsenti
Ġpol
Ġone
Ġdeix
ok
ight
Ġdesc
dade
Ġapp
Ã¡s
aix
ĠRe
Ġalgum
ĠLe
led
Ġpens
ach
Ġtempo
Ġlev
uz
Ġop
Ġainda
amento
Ġfirst
ved
ys
ree
Ġmade
Ġarticle
Ġ8
Ġher
gr
Ġer
Ġwho
Ġtran
Ġpoder
.*
ited
Ġfe
Ġfazer
wo
ĠmÃ£
Ġbeen
itu
inc
ita
-lo
Ġedit
ions
gan
Ġolhos
Ġparec
ack
ĠJo
Ġne
Ġprim
Ġpesso
Ġtheir
Ġsol
ance
Ġlhe
ĠEn
ĠVocÃª
ences
ĠSta
eral
ĠNew
ĠtÃ£o
Ġits
ional
Ġsim
Ġmul
Ġtudo
enas
lan
ric
ĠIs
red
ci
ĠlÃ¡
Ġreg
Ġ9
gora
ĠAmer
ĠPar
ied
ational
ĠEm
bal
AS
ory
ular
ĠPor
nde
ĠsÃ³
Ġdepois
ula
ser
Ġcome
Ġvis
TA
ople
ril
vis
Ġreal
Ġperg
vo
quer
ff
Ġ",
ĠÃī
Ġpos
Ġcap
eiro
-me
ese
ĠEst
ath
hn
Ġpou
cer
-a
Ġencon
ward
entes
âĢĶ
Ġgu
Ġcal
Ġsuas
inu
ice
ĠJan
Ġposs
Ġwe
segu
Ġshould
ction
ink
Ġup
go
ind
form
asse
quanto
Ġhavia
Ġconv
Ġbec
):
par
Ġconf
vol
-la
onte
Ġhist
Ġvo
Ġdur
Ġinclud
ton
inho
ents
Ġdia
za
ndo
ĠÃº
fe
Ġsal
Ġcr
Ġvida
igo
lhe
ins
Ġmod
Ġwould
Ġpra
Ġtrans
ASH
Ġsome
TAG
anÃ§
Ã¡rio
Ġcabe
ild
ect
Ġmim
Ġcasa
port
Ġnas
Ġother
avam
Ġthey
ino
ador
Ġprecis
ĠAf
Ġfam
Ġall
ĠprÃ³
Ġund
ferences
Ġ,
ific
int
emos
Ġtodos
oup
ms
ÃŃvel
rop
imento
-o
Ġyear
ft
Ġonde
ĠJul
Ġgrand
Ġloc
now
Ġprov
Ġover
Ġinc
ore
entos
je
ulo
osto
Ġassim
Ġpal
rios
ount
ĠsÃ£o
ĠAmerican
Ġtwo
Ġhomem
Ġsor
ings
ĠcabeÃ§a
ĠCar
Ġcoisa
Ġnada
Ġantes
Ġmed
Ãªs
iÃ§Ã£o
Ġdist
iver
por
-lhe
Ġabout
ĠOs
Ġenquanto
ĠJun
gar
Ġsur
ĠMay
Ġnew
Ġrela
Ġpode
ĠCon
hip
ose
olog
ations
ments
Ġlado
ale
ased
Ġli
ima
ĠÃ¡
Ġtrabal
ĠRo
ball
unca
Ġmore
Ġform
ena
Ġmulher
agem
ele
Ġanos
Ġcent
ades
der
Ġthere
anh
ua
Ġten
idos
vam
ors
ans
str
Ġcontra
ĠPro
Ġeles
Ġenc
ĠCol
Ġfol
Ġvi
ublic
Ġagora
ĠDec
cess
ason
Ġrece
chool
vern
Ġconsegu
Ġcomm
Ġdois
Ġafter
oun
tir
Ġoc
Ġdizer
ÃŃs
emb
ĠUnivers
Ġ".
Ġprof
na
lis
Ġdela
Ġdu
Ġins
Ġapenas
tar
jo
tra
use
ters
gra
Ġoutro
Ġliv
ames
ĠAug
Ġsempre
tava
mos
Ġporque
ĠFe
orld
cent
.âĢĵ
ĠNov
ĠmÃ£o
ced
ĠCl
ting
orm
Ġsent
Ġwork
way
Ġconhe
Ġtent
ato
==*
we
Ġped
tal
ĠentÃ£o
Ġaqui
ĠSep
itar
Ġpouco
Ġsc
Ġlong
Ġfac
itos
Ġgen
Ġtom
ury
uns
Ġmov
ick
ĠSp
Ġcontinu
urn
ves
Ġtime
Ã©s
ten
ĠhÃ¡
Ġri
Ġsign
Ġverdade
view
Ġmom
Ġsoc
Ġnem
ĠThis
bo
are
Ġtalk
antes
ace
ĠFran
tain
ily
ĠcomeÃ§
quele
Ġinto
erson
ren
Re
Ġinf
Ġmil
ista
Ġpeople
Ã¡vel
Ġsho
Ġbr
lish
ĠPe
Ġesper
ition
Ġrel
Ġtorn
ĠOc
iel
Ġpart
Ġmin
aro
outh
ana
Ġshe
Ġmelh
Ġvai
ĠÂ
Ġcomple
old
las
Ġmat
ogo
anÃ§a
resent
Ġpergunt
Ġany
Ġaos
ider
Ġdeb
ll
ĠUnited
Ġve
inks
Ġtal
ga
tica
Ġencontr
ĠInd
erg
ÃŃn
ĠZ
Ġcre
tember
Ġonly
ama
orth
stitu
Ġcri
tober
Ġnunca
Ġdec
Ġbu
mit
elo
ĠMarch
Ġbar
xim
Ġdef
ĠWh
ĠUniversity
aw
ural
ugar
Ġqualquer
ĠprÃ³p
Ġknow
ince
Ġemb
ĠAugust
Ġestar
ĠJanuary
ĠGr
ĠEx
Ġnoite
omin
Ġwhen
Ġ&
ĠWik
ĠAc
Ġporta
das
ĠSeptember
ĠEng
Ġnoss
ĠOctober
ĠJuly
Ġmost
Ġsup
able
Ġvir
Ġfora
ife
Ġparte
bert
Ġquem
ĠJune
oca
Ġdev
osa
ender
Ġbet
ven
Ġfinal
tim
Ġhum
ĠJohn
osse
lease
Ġcur
Ġfollow
Ġoutra
Ġlugar
Ġid
Ġcu
Ġaconte
Ġred
ĠApril
anc
Ġpessoas
Ġmelhor
Ġlar
vez
ists
Ġgrande
Ġmal
ĠAd
Ġpai
mb
Ã³ria
Ġclos
Ġthan
ĠSer
har
Ġdeletion
ĠNovember
Ġforma
Ġhim
ĠDecember
References
ĠEnt
Ġentr
rav
ern
Ã©c
cond
Ġsenh
Ġagain
Ġplan
ley
Ġvoz
Ġolhar
Ã§os
Ġbel
ĠMa
Ġdem
ingu
ature
ecial
son
ĠPr
als
ustr
)::
Ġmenos
Ġcham
rem
Ġfez
bruary
Ġpalav
ĠFor
Ġmundo
iros
Ġessa
ĠAss
Ġlo
Ġbra
omp
ĠFo
Ġmomento
ier
Ġwhere
Ġtodo
su
Ġemp
Ġrespond
Ġimport
tou
ĠAt
lia
Ġsom
Ġunder
Ġdep
ĠBo
ouse
Ġmon
ave
Ġrosto
Ġpartic
ĠFebruary
ĠmÃ£e
ĠComo
Ġthen
ital
ipedia
Ġeste
hos
Ġif
Ġcada
Ġpop
Ġpequ
cion
Ġesse
âĢĻ
otball
ĠQue
ĠnÃ³s
ĠÃłs
inn
Ġsour
tro
cted
Ġlinks
Ġoutros
Ġcorpo
Ġfilm
Ġorig
ĠSim
Ġpa
ĠmÃ£os
Ġtele
gou
ock
Ġfosse
ics
Ġneg
Ġsido
ĠPa
Ġref
Ġcoisas
tle
Ã©d
rough
Ġmaior
usic
xt
any
bum
cur
ĠMe
Ġsou
Ġdar
iet
Ġacc
:*
elho
Ġnov
Ġwill
Ġquar
ght
ux
arec
Ġgovern
ague
entro
ĠUm
enhum
car
lished
Ġalgo
jud
Ġhor
Ġused
Ġend
Ġestab
idas
iar
ĠQuando
ecess
ined
Ġteam
ween
ĠWar
ĠGu
Ġvezes
Ġfund
Ġquase
fore
Ã¢nc
iga
Ġfound
Ġproble
ps
ĠBr
Ġserv
ĠAnd
Ġyears
.âĢĿ
ĠGo
tamente
lor
Ġadd
Ġtiv
Ġano
Ġeram
rias
Ġsimp
ities
ove
ternal
Ġbeing
Ġtoda
Ġficar
Ã§as
Ġbom
Ġthem
quent
reat
cep
ĠDeus
enn
Ġsuch
Ġsabia
Ġgar
ĠCan
ĠNa
Ġach
Ġalguma
Ġreview
Ġpoderia
Ġinte
Ġproduc
gua
ĠShe
angu
Ġarch
Ġrecord
ribu
ĠBe
ode
Ġmeus
Ġconsider
ĠWorld
ĠStates
iente
ty
ech
Ġfrente
esta
Ġconta
emp
Ġpodia
Ġsei
Ġvolta
Ġess
Ġduring
ject
urther
ĠLa
Ġestavam
no
Ġmeio
Ġbetween
Ġouv
?-
Ġson
Ġsing
ati
Ġclosed
ely
riu
ived
Ġirm
Ġduas
Ġstud
ĠGe
Ġthrough
Ġvia
Ġear
ola
Ġqueria
Ġhigh
Ġlist
ĠEra
iste
ger
Ġlocal
unto
ĠCo
tas
Ġav
ano
Ġuse
tivo
ĠNational
Ġban
Ġcaus
Ġresult
Ġgra
be
omen
Ġ[
Ġdentro
Ġsaber
oso
ĠYork
ĠÃºl
Ġchar
Ġajud
Ġorgan
aixo
Ġestou
idades
Ġconhec
itas
Ġval
Ġfa
Ġnecess
ĠOn
Ġnenhum
Ġmay
mas
Ġquanto
Ġimag
ped
Ġthree
Ġseria
Ġperson
leg
ĠWikipedia
erman
ĠX
tico
Ġseg
reg
Ġexper
Ġaut
Ġlater
Ġlim
ĠEl
ense
ating
Ġali
Ġwrit
Ã¡rios
Ġide
Ġprinc
ield
Ġbus
inham
?âĢĶ
Ġwell
Ġcin
Ġfun
Ġcost
ates
ĠOr
Ġperguntou
inhas
Ġinst
Ġpl
ĠEd
ful
iÃ£o
Ġsecond
Ġalguns
ures
Ġoffic
Ġacab
Ġstr
onto
guÃ©m
ĠAm
ĠBrit
ctor
Ġnovo
velop
lex
ĠTe
rie
Ġart
ility
Ġshow
Ġpublic
Ġfl
Ġtodas
eles
iva
ner
Ġdisso
Ġfalar
ude
Ġplayers
ever
Ġho
Ġhomens
Ġnome
Ġobser
urch
ister
ral
Ġcond
Ġequ
Ġext
Ġlike
ĠtrÃªs
heiro
ise
Ġback
ident
ret
isc
Ġapro
tional
uÃ§Ã£o
ĠMan
Ġsus
ounc
Ã¢ncia
Ġfollowing
ify
Ġrele
ĠWP
ĠSh
ĠEntÃ£o
Ġcontro
veis
ĠPol
ĠSc
In
omo
Ġmer
ilo
Ġjust
Ġforam
eno
Ġtrabalho
ĠRep
mbr
Ġwhat
Ġdeu
rent
Ġ=
ried
riate
ĠÃºlti
uÃŃ
mp
ocia
ternational
Cl
ĠPh
ene
Ġset
by
Ġdiv
Ġseason
Ġnota
ths
Ġdon
ari
ĠDes
Ġrequ
ĠHist
Ġedits
Ġcoloc
Ġpois
inguÃ©m
Ġdese
Ġfurther
ounty
Ġbefore
ĠBar
ĠHar
Ġsil
ĠWill
Ġficou
arde
.,
Ġpap
ĠSte
Ġbl
irc
Ġcomments
Ġfel
Ãªm
Ġrap
Ġappear
ceu
Ġparecia
Ġret
rer
Ġmesma
Ġmud
tido
ĠUma
Ġnuma
Ġdid
Ġtanto
ĠÃºn
Ġprimeiro
Ġagainst
Ġspec
lay
Ġlead
ĠSouth
ines
Ġmy
ipal
ash
Ġseja
ĠII
Ġown
Ġsenhor
ĠFil
ism
Ġmany
elf
ago
oman
Ġdifer
Ġprimeira
col
wards
lack
Ã´n
Ġla
ank
uro
ĠAustr
Ġta
thing
Ġti
Ġleg
este
Ġsee
cos
Ġfootball
ement
Ġdurante
ĠSub
Ġfim
ĠPer
Ġname
Ġembora
Ġgroup
ĠSchool
Ġvou
ĠalguÃ©m
ĠestÃ£o
aval
ument
âĢĿ,
Ġolhou
Ġschool
Ġalbum
sequent
ĠCent
Ġtenho
ĠCal
my
ÃŃlia
ee
ause
ĠComm
uth
Ġsame
has
Ġperce
Ġcould
anta
Ġknown
Ġhow
iante
ges
Ġdoes
ĠRa
gram
Ġjo
Ġdebate
Ġbro
Ġpri
Ġsabe
unic
Ġconvers
cas
ourn
ampions
tos
Ġbir
Ã©r
ull
Ġamor
ze
Ġprote
adores
Ġseries
Ġsi
ismo
inte
Ġdisp
Ġbal
Ġwhile
Ġdias
ket
Ġtivesse
ĠGerman
ually
itou
Ġel
Ġtinham
avor
iras
ĠAb
Ġadv
ressÃ£o
Ġoriginal
ĠRec
Ġbecame
Ġincluding
rip
Ġfin
Ġtotal
Ġthese
Ãºs
cul
its
Ġboth
iment
Ġstate
cia
alian
Ġder
rir
phy
Ġcare
ĠTr
ĠPlease
Ġfer
amed
Ġeng
ĠChar
ather
mar
ission
Ġquarto
="
very
rÃ¡s
ower
Ġfour
jor
Ġpalavras
Ġpag
Ġrefer
Ex
ĠSoc
atro
gem
Ġinv
enÃ§a
Ġfar
Ġyour
ology
Ġsever
ally
Ġprod
ĠTer
ĠHow
Ġfiz
ĠatrÃ¡s
istas
ĠIsso
ĠCor
ĠRes
ange
ony
Ġcheg
Ġlit
Ġconstr
ĠReg
row
imes
Ġke
Ġneed
tig
uta
ystem
Ġdever
Ġprofess
ropriate
Ġoper
Ġatrav
Ġteria
Ġmain
Ġpelos
teza
ants
Ġlevant
Ġcidade
ible
ĠEnglish
Ġcima
tiva
ĠNorth
ute
Ġinform
ÂŃ
rict
ann
ament
ady
Ġband
Ġnumber
zer
Ġsong
yn
Ġnossa
ĠLeague
val
Ġbecause
Ã¢n
ham
Ġsuper
ffic
Ġsince
ĠTal
ilidade
yle
Ġluz
ĠBro
ĠCounty
ĠDav
ĠCity
ĠUser
ĠBritish
ĠPort
Ġviv
Ġsitu
ĠGeor
Ġtarde
Ġprop
Ġamb
Ġvers
Ġpolit
ture
Ġdesign
Ġfre
rope
rou
vision
Ġwar
Ġappropriate
Ġint
Ġuntil
Ġpub
Ġtop
illa
quela
Ġlogo
ona
Ġcaso
icos
Ġstar
Ġorganiz
Ġabove
Ġdevelop
ÃŃcio
ĠComp
Ġbat
Ġpessoa
Ġnow
ĠPara
Ġdr
Ġdeath
Ġdeve
ĠcoraÃ§Ã£o
ĠAll
lege
king
ĠOl
ĠState
Ġmaneira
pec
ÃŃr
Ġoutras
volv
Ġdelete
Ġcamp
Ġgeneral
Ġtir
ecer
ird
Ġestran
Ġbuild
Ġanim
pis
ane
ĠMo
ĠMin
Ã³rio
Ġpud
ĠLond
ision
ui
Ġbas
Ġchang
Ġbran
Ã³r
Ġmodo
Ġaquele
ford
Ġtalvez
External
Ġeduc
Ġhere
ron
Ġposso
Ġdesde
redit
ece
Ġesqu
embers
ocup
Ġpropos
Ġsala
ĠcomeÃ§ou
itor
rom
till
Ġsegur
Ġcerteza
Ġperto
Ġclass
Ġperd
ĠfamÃŃlia
ĠSu
ĠMil
Ġmag
Ġmusic
Ġlig
Ġsec
Ġtit
Ġfavor
Ġord
elas
itary
epend
ampionship
ĠKing
Ġsources
Ġjov
rar
Ġfilho
Ġtrad
Ġarticles
ĠninguÃ©m
Ġ:
ĠNe
Ġru
Ġboca
Ġfazendo
tory
ians
century
Ġdeles
Ã¡c
the
Ġlife
au
Ġincluded
iving
Ġjog
Ġespecial
ning
Ġoff
Ãºb
Ġmodify
pa
Ġhora
ĠFoi
Ġpensar
ets
ugh
ĠhistÃ³ria
Ġopen
Ġsorris
Ġdecid
Ġestiv
ĠUS
right
Ġadmin
rev
ĠÃ¡gua
ĠNor
Ãªncias
ones
eng
Ġsac
bs
Ġsimples
ĠChris
ategoria
ribs
ĠWe
Ġnosso
Ġhistory
Ġsex
Ġil
Ġviu
bra
Ġdir
ator
Ġpreocup
lu
Ġtipo
iÃªncia
erv
ĠDepois
Ġdeixar
terior
ĠTra
Ġquero
iais
ended
Ġsof
Ġrespondeu
Ġsens
Ġsai
Class
Th
Ġrepresent
Ġcaminho
Ġescol
Ġport
jec
Ġthink
ĠPre
Ġclub
Ġquis
ĠJos
Ġbei
essa
Ġobserv
idente
acter
lica
Ġ/
Ġph
ĠWilliam
ium
ĠSubsequent
Ġuns
Ġraz
oma
Ġcama
ling
mais
Ġsignific
Ġfato
Ġalgumas
into
Ġpopula
Ġmesa
thern
ired
No
tei
ĠAng
Ġwon
Ġpergun
Ġsay
Ġcarro
Ġjan
Ã¡ria
ume
Ġhel
isse
els
Ġvery
Ġed
try
ĠMic
Ġprogram
ump
ĠdireÃ§Ã£o
Ġtec
eria
Ġcrit
Ġfamily
Ġsorriso
Ġremo
ĠGre
adem
such
Ġreleased
âĢĿ.
Ġguard
Ġann
ĠMc
ney
Ġseveral
ĠSÃ£o
Ã´m
earch
ĠEurope
Ã©rio
)==
Ġrecon
Ġdin
Ġviol
ĠLink
Ġplace
uto
ĠCr
forma
air
Ġuser
ĠSec
rew
Ġmake
aÃ§Ãµes
ĠTo
raft
orks
Ġcomb
Ġsendo
hÃ£
Ġgame
Ġway
Ġeven
vers
ĠHer
ĠMor
Ġdiffer
ĠThere
Ġarea
rad
Ġdez
Ġact
Ġplayed
Ġmos
Ġdecl
Ġmem
ĠLi
ĠSem
Ġsocial
atural
ĠcÃ©
ĠpÃ¡
Ġleft
ĠWest
ĠJap
Ġresol
tel
eram
Ġcorre
Ġaquela
uel
ĠPo
ĠforÃ§a
Ġves
ĠCategory
Ġcerto
anÃ§as
Ġsm
?"
Ġ\
Ġfra
ries
oks
igos
ĠlÃ¡b
Ġparticip
ler
orts
Ġu
Ġcalled
amentos
af
Ġsystem
Ġcult
lin
Ġaper
Ġia
Ġcuid
Ġformer
utos
Ġet
Ġcover
Ġparece
ott
irm
Ġsegundo
Ġbre
Ġsair
Ġenf
ĠtrÃ¡s
Ġsaid
istra
Ġcompre
ĠbraÃ§os
Ġencontrar
Ġfeito
uring
Ġconc
)#
ĠirmÃ£
Ġmorte
antas
Ġfech
elmente
ivil
vious
otes
Ġacredit
Ġexist
Ġminhas
uras
Ġindiv
ites
rado
Ġfilms
Ġtro
ized
enho
Ġnomin
ington
Ġtre
iÃ§Ãµes
Ġparticular
ĠTod
Ã³g
Ġz
Ġbased
Ġsuc
ĠThey
Ġmajor
ient
iff
Ġbase
lear
ĠBras
ĠCam
Ġimagin
ĠAir
Ã¼
ĠPres
Ġaproxim
Ġmand
isa
Ġabs
ogra
ĠSw
usti
Ġnear
Ġmater
orre
Ġhoje
urg
iqu
Ġreturn
Ġtemp
Ġgente
uma
umb
Ġrealmente
ĠchÃ£o
ĠMal
ĠPart
Ġjunt
Ġcorr
Ġcontr
Ġbelow
ĠpossÃŃvel
los
Ġteve
ĠpÃ©
Ġhead
uck
ĠAlex
inas
endeu
Ġponto
Ġexplic
ĠMon
laim
ĠRuss
ĠRed
ĠprÃ³prio
Ġdom
Ġcoun
ought
gest
ches
ĠHigh
Ġhuman
ĠÃ³
Ġprepar
Ġris
Ġthose
Ġsusp
Ġaparec
ĠQual
Ġchild
ĠDan
Ġmedo
Ġmur
icas
Ġpost
ĠprÃ³pria
Ġpas
ĠDo
hes
Ġvoltar
color
ĠMed
ĠmÃ¡
ĠalÃ©m
born
iety
Ġhoras
Ġcity
Ġrespe
Ġrema
Ġpassar
Ġpress
Ġdemais
Ġdeter
Ġsold
Ġcomigo
Ġearly
Ġhos
ĠCont
Ġmembers
Ġcaval
Ġmet
Ġdel
alia
Ġeach
cesso
ĠEles
ties
Ġanti
Ġgost
rench
rim
ĠPhil
ĠTalvez
ĠJapan
yp
Ġques
ilar
Ġsection
Ġ$
ĠLu
ining
zinha
ĠmanhÃ£
Ġmulheres
ĠmÃ©d
Ġsupport
Ġnon
ordo
Ġwomen
tics
Ġread
Ġisto
erra
Ġcul
Ġbol
Ġstill
ĠYou
iram
Ġlemb
uthor
Ġdown
cha
Ġsentir
ĠChe
sp
ÃŃp
Ġcommun
ique
Ġtak
Ġtext
ĠOu
Ġkeep
ĠrÃ¡
let
ĠIf
Ġapresent
iogra
ĠGen
Ġcha
Ġpolic
Ġhab
tia
onge
Ġdescob
ĠAfr
Ġalong
Ġestivesse
enda
ĠAgora
Ġdou
Ġboa
enÃ§Ã£o
conom
enta
ĠCap
gue
Ġpelas
ĠSo
ĠSan
Ġmuch
ĠMu
Ġcareer
nos
Ġens
late
Ġnovamente
ody
.âĢľ
Ġdorm
ĠMat
Ġgood
Ġget
urb
ĠpolÃŃ
iedade
alth
ĠChampionship
Ãºmer
Ġeff
Ġfind
Ġprocur
ilt
ĠVer
ĠVol
rada
iness
yal
ĠEstÃ¡
Ġdiante
abe
ĠAfter
Ġbril
line
Ġsingle
Ġevent
vent
Ġchegar
Ġnor
ĠHis
thers
ards
ĠPark
Ġclaro
Categoria
bor
Ġsepar
ĠDiv
ero
fia
Ġindic
lar
Ġbast
Ġperman
Ġouvi
Ġcour
Ġtermin
ords
ĠJames
Ġevery
Ġbirths
ĠDist
ĠGra
ĠDavid
Ġsmall
ficiente
omas
Ġcara
ĠLondon
Ġadded
che
Ġpat
tian
Ġnamed
ror
day
ĠSua
Ġescrit
ring
ĠCup
Ãªn
Ġaddit
ĠserÃ¡
ĠpÃ´
ĠlÃ¡bios
Ġig
com
-te
Ġlaw
ious
rava
ĠCollege
Ġforte
ĠDr
cel
esar
ĠInternational
ĠSeu
dio
ÃŃcia
Ġgovernment
ĠFrench
ices
Ġstand
list
Ġexemp
:-
feito
Ġaround
âĢľ
ensus
Ġcop
Ded
ah
Ġpublished
Ġpreciso
Ġlonge
Ġterra
ĠSal
ĠatravÃ©s
tin
Ġmostr
Ġpassou
Ġheld
Ġalign
Ġmember
Ġprofund
Ġrun
Ġfut
ĠHol
Ġbegan
ĠmÃºs
ipe
Ġdue
angue
upo
Ġold
ution
Ġcompany
idge
ency
Ã¡rias
Ġafast
Ġanother
Ġfazia
Ġcurrent
Ġcirc
tac
Ġgiv
Ġinves
acional
Ġlast
Ġace
Ġjovem
Ġbaix
ĠOb
ĠJe
Ġdescrib
ĠPeople
Ġseem
elos
Ġworld
fa
ĠWal
Ġtenha
Ġdinheiro
Ġepis
Ġbeb
Ġpux
ĠHouse
Ġmuitas
embro
ĠHowever
Ġperceb
Ġdoc
Ġmulti
osta
ivo
Ġestablished
Ġideia
act
tura
ÃŃt
ĠEstou
ĠVal
Ġrelig
Ġ.
rea
Ġdecis
Ġarran
Ġprocess
Ġmiss
idamente
own
Ġtown
Ġfeliz
ĠIm
ĠPal
iado
top
Ġliber
Ġdor
Ġcase
Ġland
posta
Ãªncio
Ġolhando
Ġje
Ġlivro
Ġalto
ĠIndian
Ġdirig
tiu
ĠrazÃ£o
ticas
Ġcaminh
ize
Ġlink
ĠvÃª
ented
Ġtook
iod
ede
Ġprincipal
ĠPaul
temp
ĠHen
anda
ĠDa
Ġnational
app
ociation
Ġbaixo
via
Ġvoltou
van
ike
gcolor
Ġdeixou
esa
Ġdeveria
yl
Ġnar
Ġclaim
Ġhome
Ġpen
Ġquatro
ĠRich
Ġdedos
Ġhon
ĠÂ·
Ġ|-
illion
bility
Ġtelef
Ġdescon
ĠDem
aÃ§o
Dele
ĠAo
adeira
Ġpoint
Ġmuitos
Ġsum
avelmente
Ġhistor
imentos
reet
Ġfem
Ġidenti
Ġdifferent
ĠGeorge
,"
ĠSam
cido
Ġline
Ġright
atal
ĠArt
nda
rote
Ġofer
Ġexcl
ĠÃºnica
ĠTom
Ġprovid
entemente
ba
ĠAh
Delete
ĠOh
isted
ĠbraÃ§o
Ġlongo
ĠDep
ĠtÃªm
ically
hael
ils
Ġbgcolor
izaÃ§Ã£o
Ġesti
Ġcausa
Ġpudesse
ĠGrand
Ġpromo
Ġrad
ĠpaÃŃs
lig
pres
Ġelas
Ġestud
ĠÂŃ
ief
Ġhouse
Ġindepend
Ġsuficiente
Ġrespons
Ġdesap
kes
Ġreceived
ĠlanÃ§
ĠOp
berto
Ġdaqu
Ġbook
ged
Ġvari
Ġpodem
arch
ances
vida
Ġroup
ĠsilÃªncio
lated
Ġpalavra
adr
Ġdesej
Ġcapaz
Ġcompan
Ġvel
ende
ex
veu
eceu
Ġpartir
Ġmente
idd
Ġsug
II
irst
ĠMag
ording
ĠMer
Ġsat
ĠCons
Ġsen
ned
estern
Ġinstr
Ġshort
ournal
Ġlembr
irect
Ġnova
Ġsangue
Ġarm
ĠKe
Ġfundo
ĠAnt
ĠatenÃ§Ã£o
Ġcompar
Ġchanged
Ġday
Ġmaterial
ĠvocÃªs
Ġinformation
Ġapar
ĠOut
Ġenter
ĠPat
ideo
Ġspe
bro
Ġdata
ander
Ġserved
Ġnatural
Ġstyle
ĠEsp
Ġouvir
Ġx
Ġâ
vil
Ġvelho
Ġstation
ĠdÃº
Ġsentido
Ġrou
Ġestado
ĠBrasil
Ġfig
ĠâĢ¢
ĠirmÃ£o
ĠSa
Ġpais
ontade
Ġbon
Ġtitle
Ġamar
ÃŃamos
irou
essem
ĠHo
Ġgames
Ġpermit
Ġpequeno
eix
ĠLou
Ġconcer
Ġaquilo
Ġcreated
Ġdefin
Ġborn
ĠBel
ĠLuc
ĠHav
ĠapÃ³s
Ġallow
}}
Ġentrar
Ġsentia
Ġjul
Ġcentury
ĠsaÃŃ
Ġnenhuma
ng
Ġhelp
Ġwithin
Ġbest
Ġproblema
ĠJer
ĠRet
Ġcabelo
ĠBu
ĠHistory
Ġdesen
imin
iou
ĠCalif
Ġsuccess
ocra
yd
Ġcompet
Ġwithout
Ġobrig
Ġquest
ĠSou
tivos
ple
atos
Ġcostas
Ġfew
ĠParty
Ġlocated
Ġapr
Ġpequena
Ġinflu
ised
lete
Ġamigo
Ġpreser
mbros
Ġreconhe
Ġorder
ars
Ġmoved
ĠnÃºmer
ĠrÃ¡p
Ġestre
Ġvontade
Ġquais
atch
ĠBer
Ġappro
ĠBra
ĠAg
Ġombros
idual
Ġbastante
ung
Ġsentiu
Ġjunto
Ġfilha
Ġreceb
essed
antar
umn
Ġvolt
Ġexamp
ĠCas
Ġescre
Ġauthor
Ġentanto
Ġlog
ery
Ġtentando
bras
Ġpassado
Ġgrupo
elhos
Ġdetermin
ila
Ġage
.)
imo
ĠrelaÃ§Ã£o
Ġdra
cial
dic
ĠTV
ĠPress
Ġsorriu
ĠquÃª
ĠOne
Ġacho
riend
Ġfix
Ġofficial
ĠDon
Ġrespeito
ental
Ġcontribu
tis
Ġlou
Ġtrabalh
though
Ġrepe
Ġbuilt
andon
Ġhand
Ġnotable
ouncil
Ġpopular
ugu
gon
adamente
Ġlook
Ġcres
ald
Ġnorm
ĠVic
ĠpÃ©s
Ġturn
Ġusing
Ã¡veis
anha
ints
Ġperiod
Ġautor
ying
Ġtelevision
Ġren
Ġinclude
ĠChurch
izar
Ġthird
onta
ats
Ġconcl
gin
rei
usa
pital
Ġeditor
ĠRepublic
antos
Ġaz
ished
Ã¡tica
Ġcinco
Ġdesse
Ġlarge
Ġproposed
Ġblack
Ġpp
Ġtoc
ĠMary
Ġpensou
Ġvar
ĠMeu
Ġado
less
Ġprecisa
Ġwee
tors
ÃŃcil
ĠexpressÃ£o
Ġsite
Ġergu
ĠSm
Ġsix
Ġpers
.:*
side
yc
ka
ĠFilm
ĠÃºltima
Ġminutos
Ġpapel
nec
Ġdiss
ticos
ioso
useum
Ġprevious
alh
ĠAward
Ġimpor
ÃŃveis
ĠPaulo
Ġsource
Ġencar
Ġdevia
Ġgrandes
ĠBem
ulos
Ġtake
Ġlevantou
ctions
ĠJac
Ġcit
Ġlangu
Ġdesta
ĠReferences
cience
ram
Ġpergunta
Ġrepor
Ġps
Ġdi
Ġmention
Ġi
ĠaÃŃ
ential
ĠBat
ked
Ġdied
ĠEast
Ġgaro
Ġdessa
ĠBl
ĠEngland
Ġapo
ĠDu
);
Ġpeito
ĠCO
Ġfive
yed
Ġmedia
ĠBut
ĠdifÃŃcil
Ġpain
Ġintro
oph
Ġans
Ġvilla
Ġpul
Ġbeij
tical
Ġinteress
Ġexec
ĠTudo
Ġcolle
ĠMy
Ġchor
ĠDistrict
Ġannounc
Ġamigos
ĠIr
Ġpun
Ġseguinte
ĠParis
ĠMaria
Ġatt
nas
Ġabriu
Ġlab
mentos
ornia
Ġfilhos
Ġcompos
ifica
ĠporÃ©m
Ġdess
Ġservi
ĠRobert
Ġwritten
Ġview
ĠAssim
ĠMac
ĠTem
Ġdireito
ground
ĠdÃ¡
Ġdesaparec
Ġconstitu
Ġcort
Ġterm
ĠList
Ġgiven
Ġquestion
Ġchegou
ope
See
tida
sh
Ġimportante
edy
Ġpopulation
Ġobje
berta
Ġimedia
ĠGovern
Ġessas
Ġacomp
Ġopin
Com
Ġclear
alf
Ġpert
inta
Ġpossib
lymp
Ġpele
Ġhaving
Ġnature
NÃ£o
mon
Ġmass
Ġmus
Ġbuilding
Ġsaiu
Ġpower
Ġcria
artment
Ġlevar
Ġenerg
ensa
ĠMichael
ĠMusic
Ġcontrol
Ġspecies
ĠVir
rian
Ġversion
Ġreun
idence
ÃŃtulo
Ġexemplo
ĠThomas
orr
Ġvamos
ĠBest
ĠIsland
ensÃ£o
ĠCalifornia
tice
Ġdemon
Ġconsci
ĠFrancis
ĠsituaÃ§Ã£o
Ġtransform
Ġarg
ĠEstava
Ġseguida
-nos
sos
Ġing
Ġresearch
tation
Ġutil
ults
ĠpÃºb
ither
ĠClub
ĠGeneral
Ġsatis
wh
Ġunivers
ala
Ġsimilar
inted
ĠJes
ĠEsta
ĠMiss
Ġfug
ĠBen
Ġempre
Ġmarido
ĠRoman
ĠsÃ©c
ĠAustralia
lio
Ġfoc
cont
Ġintern
Ġactiv
iana
ĠNA
ĠAcadem
Ġstor
Ġarr
dom
iano
Ġempres
Ġclar
Ġjorn
ood
hei
ĠÃ©p
ĠYear
Ġbeh
inning
Ġair
ĠBlack
Ġnossos
Ġconst
cept
Ġresposta
inos
of
obre
icial
log
ĠOlymp
Ġrequest
ilway
Ġexpress
ĠcrianÃ§as
Ġfalou
Ġfuncion
ison
cio
Ġlevel
Ġrem
Ġindividual
Ġverm
ours
Ġstart
Ġpac
Ġchildren
Ġste
Ġeconom
xas
ĠSch
adu
ĠSing
Ġrepente
Ġfamil
Ġconseguir
inhos
cimento
Ġagrad
amin
Ġpret
Ġoften
ĠRiver
Ġaleg
Ġimpro
ĠJack
Ġworks
Ġinforma
ately
Ġjeito
Ġarchive
ĠAmerica
uction
Ġanal
diff
ques
Ġadministra
Ġestablish
Ġrevel
anks
men
Ã§ou
Ġconte
Ġhaviam
zo
forman
ctr
ĠMad
Ġcerta
Ġincre
ĠSup
ĠVamos
avy
Ġvisto
Ġign
key
Ġ#
Ġvirou
Ġplayer
ĠIndia
Ġservice
Ġhou
Ġcharacter
ĠStreet
ĠEar
ovo
rans
Ġgeral
ĠRio
Ã³n
estiv
ĠBy
ark
ched
tire
Ġpersonal
Ġtomar
ĠLiving
Ġsenhora
Ġcand
bsite
riz
ĠInstitu
taÃ§Ã£o
Ġpur
tives
ashington
ĠCha
Ġcommunity
ĠCanad
Ġrole
Ġfeature
Ġesses
ably
Ġcontribs
ĠcrianÃ§a
eraÃ§Ã£o
Ġescap
Ġ+
ĠsÃ©
Ġmurm
ĠnÃºmero
ĠAustralian
ĠAcho
BC
Ġpreserved
ĠQuem
tado
Ã¢m
irl
ximo
Ġside
ĠespÃ©c
Ġnaquele
ference
itions
Ġcountry
cura
Ġalc
ĠSil
Ġdirector
?âĢĿ
ÃŃrito
Ġthough
Ġwater
sue
ĠRoyal
Ġagar
work
Ġdescribed
Ġdesp
Ġfield
Ġcontent
Ġissu
iew
Ġsel
Ġblock
Ġmanter
Ġarchived
Ġvista
get
Ġprime
ĠArmy
ĠAinda
ush
Ġpresent
vio
cy
cado
Ġacompanh
Ġiria
ĠDivision
rieved
ĠPeter
Ġinterest
Ġcho
ored
Ġperform
ĠCharles
hel
Ġbrilh
ĠWil
Ġdeclar
usÃ£o
togra
Ġredor
Ġocup
Ġextra
ĠCarol
Ġsele
{{
ages
raÃ§Ã£o
ÃŃd
Ġreason
Ġinvol
Ġcomer
Ġreb
fo
urou
Ġaconteceu
)*:
Ġguerra
ĠPod
Ġround
atamente
Ġtechn
ĠChina
fÃ©
ema
Ġabandon
Ġcomment
Ġbusiness
ĠCour
rv
ides
bre
Ġexample
Ġrapaz
Ġprecisava
ream
Ġexperi
Ġnorth
ĠlÃŃn
used
ĠSen
ĠÃºnico
Ġrepla
load
Ġtoo
atura
related
Ġsurpres
ortun
Ġbelie
Âº
almente
Ġquad
Ġled
rÃŃvel
Ġadm
iosa
ipp
Ġdeleted
Ġtemos
Ġden
tio
Ġmodern
Ġprom
ĠOffic
ĠArch
Ch
ĠStud
Ġamong
ĠFirst
ĠWashington
ederal
odo
itando
lico
lem
ĠAwards
itual
Ġinten
ĠÃ©poca
Ġesfor
Ġelection
Ġdiferente
ĠEuropean
Ġcommon
Ġsk
|-
Ġdays
ĠFrance
Ġcivil
Ġliter
osso
esper
ĠVou
rial
ĠJesus
ative
Ġcapital
Ġlate
Ġnovel
Ġdivers
ĠTinha
Ġpot
ĠSr
Ġmale
ĠSenh
ĠDire
Ġfull
table
ĠvÃ£o
.:
reen
ĠFl
Pro
ently
Ġstarted
Ġsubject
Ġvoc
Ġinternational
Ġ":
Ġcontar
tigo
ĠLeg
Ġmeses
lot
ĠRichard
itado
Ġdesl
Ġreported
ĠPri
Ġmont
Ġandar
Ġpasso
Ġvarious
ĠSab
Ġassist
Ġencontra
ĠFrank
Ġrua
ologia
rael
ĠAqu
Ġothers
Ġmant
lap
Ġjanela
field
Ġaward
ĠDis
Ġjusti
rist
ready
rog
Ġrever
esto
Ã§ar
Ġpegou
ea
Ġput
Ġpolitical
amais
rd
culos
Ġattemp
unicipal
ĠquestÃ£o
Ġsignificant
Ġcame
Ġinclin
Ġfather
tack
)**
self
Ġentrou
Ġdizendo
Ġwin
Ġtimes
Ġmerg
ecia
Ġanterior
Ġinit
ensei
Ġaff
Ġmove
otor
Ġsemana
Ġchurch
ĠLaw
Ġgreat
izado
Ġviver
ĠZe
Ġfalta
ĠPla
Ġcoment
File
pose
ĠSport
Ġnever
Ġveio
Ġjud
Ġsouth
Ġinterior
itude
ĠScott
iography
Ġprefer
tific
Ġassass
ĠNÃ³s
Ġpernas
ĠMr
ĠAssociation
Ġrei
agens
Ġspecial
ĠCanada
Ġganh
Ġced
Ġnav
ĠSol
ĠNunca
wer
Ġfui
Ġproper
omes
Ġtrem
ĠHel
Ġannounced
Ġconseguiu
ĠSha
Ġnext
imas
Ġwhite
Ġprazer
Ġmovimento
ÃŃm
Ġconseguia
Ġdesejo
ĠBill
ĠAct
Ġsimplesmente
As
ights
Ġrating
Ġabra
Ġenough
Ġrapidamente
gia
itch
vamos
Ġdestr
isso
ĠMilitary
Ġbot
Ġfinalmente
Ġtes
Eu
istema
Ġlet
adora
Ġimage
ending
pond
Ġcruz
orme
Ġmean
Ġtest
ĠTrans
Ġmeet
Ãī
Talk
Ġdeaths
ĠPed
ĠSum
Ġbecome
AR
hop
erva
imos
vely
Ġcob
ĠBas
Ġgener
Ġdistrict
tivas
ĠTa
Ġpriv
Ġestamos
Ġwent
Ġacres
ĠWhen
assem
reja
iquei
ĠHistor
Ġfran
Ġproject
han
ĠHall
ĠTenho
Ġgol
aint
Ġtentar
ker
Ġmanag
Ġfica
Ġconsigo
duced
emente
ified
olic
ĠMais
unci
ness
ĠWomen
ĠNot
Ġstruc
Ġapesar
enos
anding
Ġtraz
Ġalready
Ġwebsite
Ġmight
Ġacontec
Ġaqueles
Ġexis
ĠMel
Ġmort
Ġprob
Ġreport
una
endia
ype
ota
ĠCanadian
Ġfeat
ĠCouncil
Ġnotability
enced
merican
ĠespaÃ§o
Ġmillion
time
Ġvideo
Ġless
Ġship
Ġbrinc
ussur
ĠNova
mento
esso
Ġengine
Ġdiff
ĠTown
ĠAlg
usto
iada
Ġreac
ĠThat
ĠFootball
Ġcandid
Ġcoach
ĠÃ¡rv
Ġcabelos
astern
ĠSuper
eta
ĠQuality
Ġexatamente
Ġimportant
Ġacordo
eza
Ġassunto
ĠPorque
ware
uce
Ġmuita
Ġdiver
ĠFlor
lam
ues
ological
iable
Note
Ġajudar
Ġatra
Ġacord
ĠmÃºsica
ĠHenry
iraÃ§Ã£o
Ġmaking
Ġjun
Ġmaioria
Ġmilitary
Ġsignifica
ĠRob
ĠÃºltimo
rup
ĠGroup
.?
ĠFinal
Ġpior
Ã¡cil
Ġpont
Ġproduced
ĠUnion
reek
ĠAnn
ĠCentral
ship
ĠcÃ©u
Ġleast
Ġappo
Ġposition
ays
Ġwrote
View
ĠDou
ĠcafÃ©
Ġrest
Ġvic
Ġdiscussions
Ġdig
omb
ĠWith
ĠSociety
anas
wood
estival
Ġtw
coÃ§o
Ġperforman
Ġlut
ĠRetrieved
ĠlÃŃngua
uf
Ġfalando
igned
Ġlevou
tros
Ġdomin
Ġconsidered
Ġaccess
Ġconcent
Ġcadeira
cons
Ġdefe
aixa
istory
ĠProv
agar
Ġprofessor
Ġnaquela
vail
ĠRoad
ĠfÃ¡cil
Ġalma
Ġpho
Ġcasamento
Ġpodemos
Ġempur
gether
Ġworked
Ġlat
sc
ming
Ġmach
tures
ĠdÃºvida
ĠTur
ulho
Ġescola
ĠMen
rest
ĠvÃ¡rios
uir
Ġperder
Ġattack
Ġconversa
Ġconse
Ġsw
ĠMus
Ġdevelopment
etro
Ġinstante
ĠCompany
Ar
Ġpovo
ĠAfrican
ville
ĠNem
arem
tained
ius
-no
viv
Ġcontinuou
umin
ĠChristian
anti
Ġsussur
Ġprofessional
Ġtor
ĠvÃ¡rias
Ġtornou
tee
ĠDemocra
?âĢĵ
ĠpescoÃ§o
Ġacha
Ġinvestig
Ġpages
ardo
Ġnesse
cts
rut
Ġprocesso
ĠInc
ross
Ġinsp
ĠCong
ws
itaÃ§Ã£o
ĠEstados
alls
Ġdri
Ġaud
Ġseguir
Ġsports
Ġcampo
Ġcompletamente
Ġexc
Ġesposa
bol
issÃ£o
ving
Ġhowever
Ġproblemas
Ġtelefone
ĠTalk
ĠÃģ
ering
Ġdizia
rindo
Ġstory
Ġinfer
Ġtriste
ualmente
ĠSee
ensive
Ġfogo
ĠespÃ©cie
Ġreass
Ġresid
iddle
Ġvillage
Ġjuntos
oria
Ġrather
Ġrecu
Ġresta
gio
Ġabsol
Ġbetter
Ġbras
Ġcenter
Ġjantar
ression
Ġflores
ĠVictor
ĠEr
alha
Ġinstitu
Ġrom
Ġsistema
ĠHavia
Ġperf
ĠMes
ĠHill
Ġfact
ÃŃb
Ġesperar
ĠsÃ©culo
rick
ĠCer
Ġpoints
ĠTemp
Ġagu
ĠGold
tif
Ġwhe
ĠrÃ¡pido
Ġretor
Ġpolitic
ĠMont
Ġmis
ĠWhite
ĠCenter
ĠSmith
Ġlivre
umni
ĠCa
vaÃ§Ã£o
vir
Ġeither
Ġmorrer
Ġetc
Ġrealidade
ĠLouis
iÃµes
hib
Ġvaz
entamente
Ġregular
stra
Ġneste
sey
:âĢĶ
ya
ĠlÃ¡gr
Ġlanguage
ĠFel
ĠEste
tead
var
ĠSeus
ĠGermany
qÃ¼
ĠIsrael
ĠPlay
ĠinÃŃcio
ientes
ulated
odes
ĠAlÃ©m
Ġusers
ĠMinha
aco
Ġevents
Ġseems
Ġcozinha
ĠJew
Ġparty
ym
Ġmatch
uais
guei
ĠMuseum
ĠLit
cast
Ġpresente
Ġadmit
ĠSur
Ġprovavelmente
Ġsinal
Ġconsensus
ways
ÂłÂł
Ġaver
ĠRussian
ÃŃnc
Ġassum
Ġbeg
ĠDef
Ġjogo
Ġconcord
Ġjamais
Ġchange
Ġmarried
ĠPresident
ĠTimes
Ġmens
tando
Ġcount
bit
anÃ§ou
Ġproduction
.--
Ġespec
Ġacima
Ġtu
Ġcompr
ogn
Ġgosto
Ġrevol
Ġimm
Ġemo
aves
Ke
Ġcalc
Ġbroad
hou
ĠThese
Ġdirect
Ġresto
ĠCourt
Ã£os
Ġpros
enha
ĠCath
Ġlhes
ĠItalian
ĠMex
Ġcump
Ġjoined
Ġentender
Ġfriend
idÃ£o
nel
mbro
avil
Ġwant
ĠHum
Ġabrir
Ġsegunda
Ġhospital
utes
Ġapart
Ġtrou
Ġ-:
ĠEssa
ĠPrecis
aly
Ġata
Â»
ĠidÃ©
ĠRac
Ġating
ength
Ġfree
ĠsensaÃ§Ã£o
Ġkm
Ġissue
Ġorg
contribs
Ġparou
pl
Ġavail
rito
Ġpensando
ĠMartin
tively
ĠQuer
ns
Ġleve
test
Ġparede
Ġgal
Ġpensamento
ĠEduc
ĠStar
Ġtrib
ĠKingdom
ĠEv
dÃ£o
Ġignor
ĠEsse
ĠAfD
ĠGreat
ares
erst
tery
Ġface
Ġnerv
Ġdoesn
jet
xima
pro
Ġsomething
Ġdedic
ots
ÃŃa
Ġombro
Ġhalf
Ġweek
Ġcapac
On
Ġtransfer
xto
Ġexig
ĠKar
Jo
jar
Ġcai
Ġeditors
rey
ĠGar
Ã³p
Ġdim
Ġdescobrir
respond
Ġparar
Ġcategory
Ġmenina
Ġajuda
ĠLo
Ġgoing
ĠCris
eph
Ġwik
Ġremoved
lation
ĠAtÃ©
Ġpossa
asons
ĠCamp
Ã£e
Ġvestido
ĠServ
ĠÂ«
ixo
Ġlinha
Ġvig
Ġcorred
ĠEdit
Ġestiver
ĠSome
ordin
IN
Ġdeixando
ĠpresenÃ§a
ĠPra
Ġreassessed
ĠDaniel
Ġnossas
Ġcentral
Ġinvolved
CA
Ġesperando
Ġassocia
ĠChin
Ġpasse
Ġexer
Ġcolocou
Ġsed
reu
Ġamea
ĠMark
Ġnatureza
istan
Ã³rias
ki
anish
Ġdando
Ġaltura
Ġequip
Ġpoucos
des
Ġmust
Ġordem
ĠGreen
Ġdiferentes
Ġtrabalhar
Ġinterpre
Ġvem
ston
Ġarre
Ġacontecer
otos
ĠLos
illed
ru
ĠpÃ¡g
Ġpolicy
Ġimposs
Ġundo
ĠTele
itect
Ġcair
Ġacrescent
iscuss
most
Ġterrit
Ġgritou
Ġenvi
Ġdific
ĠEsc
Ġtendo
amil
Ġdisco
Ġgrav
Ġseis
ĠJim
jects
],
ĠProf
itava
ography
ĠDuring
gress
ĠcomeÃ§ar
urante
Ġrelations
ĠRecords
Ġworking
ky
Ġstat
ĠJapanese
Ġnam
ny
Ġreally
Ġouviu
Ġprac
Ġcampa
Ġdebut
liam
Ġalta
Ġproduz
Ġdaquele
Ġestranho
Ġarma
Ġfrio
Ġreturned
Ġcalor
Ġlegal
Ġmist
ĠfÃŃs
timo
Ġimediatamente
Ã§ado
duction
Ġgos
Ġmeia
Al
ĠposiÃ§Ã£o
tima
Ġlivros
Ġfacil
ĠprincÃŃp
ĠUnidos
ĠBay
Ġdeste
Ġnele
ĠTexas
Ġdelic
Ġshows
Ġencontro
otal
Ġopened
Ġusar
Ġpic
De
ĠTeam
iando
ĠlÃ¡grimas
Ġviagem
ĠTodos
Ġcomplete
och
ĠLat
Ġescond
vas
usta
Ġelev
Ġgroups
Ġroad
Ġsongs
liament
ĠvisÃ£o
Ġour
ĠcontrÃ¡rio
ĠVi
ĠJoÃ£o
ership
Ġrelacion
Ġapont
Ġguitar
ĠFar
Ġhar
ÃŃdo
Ġtentou
ĠSara
ĠFrom
Ġwhy
year
ossa
ĠGames
Ġcomun
Ġavailable
ĠRos
ĠJosÃ©
orado
Ġteams
olÃ³g
zinho
itive
Ġsurg
ĠpolÃŃtica
ĠAra
etwork
Ġmentioned
ĠUK
Ġidade
ĠDE
ĠInstitute
Ġdormir
Ġstrong
ĠSegu
ization
icago
Ġlost
Ġlik
thle
lands
vin
ĠPl
itamente
Ġdam
->
Ġpossible
Ġinj
back
cks
Ġperm
Ġdesenvolv
bora
Ġsinto
gen
Ġvinte
ĠcÃ¡
ases
Ġbene
iramente
ughter
Ġcomplex
ulas
Ġcopy
Ġareas
Ġreliable
izada
Ġvisit
isÃ£o
Ġ)
Ġhaver
Ġconfirm
ands
Ġrefle
ened
Ġcontinued
ĠFic
ĠAli
Ġ->
Ġrelease
Ġinic
.âĢĿâĢľ
Ġtempor
ulp
ĠespÃŃrito
Ġtyp
Ġestabele
azine
Ġdistribu
Ġenorme
Ġperfe
ĠperÃŃ
ĠVirgin
Ġregion
ĠWestern
ĠÃĢ
ĠAcademy
ĠBrown
Ġmotivo
Ã¡b
know
Ġhapp
oney
Ġboc
Ġcarta
Se
Ġsurpresa
Ġconce
ĠDeix
Ġseen
Ġhold
Ġ()
Ġdone
Ġesperava
ĠWin
fica
Ġavis
ĠseguranÃ§a
Ġquente
Ġretir
Ġstudents
ĠSong
Ġlittle
Ġsecret
Ġobra
*:
ĠEnc
Ġmonths
Ġconvid
Ġtirar
ĠPrim
ĠPass
ĠRad
jam
Ġaltern
brary
Ġgave
Ġfirm
Ġcontin
Ġtaken
ĠTor
Ġgoverno
Ġeducation
user
Ġentire
ĠGl
Ġtorno
ĠSenhor
Ġdesper
Ġnormal
entiu
Ġredirect
ĠUp
Ġcele
Ġenvolv
anded
aland
ĠFre
den
ournament
ĠFrancisco
ĠChrist
Ġesquer
ĠLab
ata
uan
Ġtogether
ĠWhat
ĠExp
This
istic
Ġclose
Ġacreditar
itiv
Ġlive
Ġbrasile
Ġfoss
ĠMesmo
ĠDepartment
Ġcentro
Ġdeta
reira
eder
ĠPublic
quad
endido
orial
ĠChinese
Ġoppos
rando
ĠnegÃ³
Ġfuturo
Ġnecessidade
icamente
Un
ĠexperiÃªncia
ĠDay
Ġambos
uldade
yer
Ġcorrer
Ġrecogn
Ġlic
ĠAcc
Ġcole
Ġacross
Ġreceber
Ġescur
Ġcompleted
Ġprovoc
Ġjornal
ketball
Ġfamiliar
olh
anho
gado
ĠBal
Ġbranco
Ġrock
ianÃ§a
Ġsociedade
ĠPop
ĠDra
ĠBur
ĠInf
Ġissues
Ġcomum
Ġsuperior
ĠEmp
Ġge
lobal
!"
Ġevidence
Ġtri
Ġdesesper
Ġdava
ĠdistÃ¢ncia
Ġaddition
Ġsomeone
Ġchap
ĠSho
Ġativ
Ġcat
ĠChicago
Ġsurpre
ĠNada
cing
Ġassust
Ġsorte
ĠFa
Ġproblem
Ġpena
Ġgarota
Ġlow
Ġcontinuar
jas
Ġservices
umento
Ġoffer
Ġirrit
ativa
board
ĠAfrica
Ġlisted
Ġimagem
ĠFred
Ġoffice
Ġonce
Ġbord
Ġvalor
ostas
Keep
Ġjur
Ġraiva
ription
Ġsomente
ĠMill
Ġaway
Ġsy
Ġmotor
Ġcritic
Ġtive
Ġroupas
Ġelected
ye
ĠmÃ©dico
ells
hÃµes
anÃ§ar
ĠRock
agement
ĠTambÃ©m
ule
ĠEnquanto
Ġbooks
ĠAdam
Ġdelas
bros
ĠSaint
Ġrecorded
Ġtype
ĠlÃŃ
Ġconvenc
med
ĠNews
Ġpensamentos
ĠSir
Ġsound
Ġcoverage
RO
Ġcertain
ĠClaro
quis
Ġappointed
ĠCur
Ġalthough
Ġlight
Ġsigned
ĠJud
Ġextrem
ĠKore
Ġmenor
ĠAfDed
ake
Ġvelha
Ġcorrespond
ĠZealand
Ġcurios
Ġpad
Ġquebr
onia
Ġconhecimento
Ġstra
Ġimper
xe
uÃŃdo
Ġconj
ĠPan
Ġplano
Ġsentindo
ĠMod
||
Ġoccur
Ġsatisf
pot
ugal
Ġhimself
ĠHon
ĠconsciÃªncia
Ġsequer
ĠVe
Ġleague
cios
Ġexiste
Ġelectr
Ġinstal
jos
dia
ĠSocial
Ġpedir
Ã©is
!-
Ġgot
Ġdete
Ġtornar
Ġpessoal
ĠInter
rel
Bot
Ġable
Ġentrada
Ġteach
Ġazul
ĠFal
vey
itt
ives
ĠvÃŃ
ÃŃfic
ĠEstado
Ġfantas
Ġgradu
ĠSpanish
reland
Ġterce
oming
Ġresults
Ġcompe
Ġwife
encial
utive
Ġbody
Ġnu
Ġoportun
Ġdrama
VocÃª
Ġdivid
oura
Ġpegar
ĠAngeles
ircraft
ĠPode
Ġindo
Ġdigo
Ġmid
Ġfounded
ĠMass
Ġdeal
orro
ilha
Ġgrow
Ġalumni
Ġtiver
Ġconver
abeth
Ġupload
erican
Ġdito
Ġpedra
Ġdaquela
ĠSports
Ġinitial
ĠGab
ĠUs
ĠAle
Rep
irar
km
onment
ceed
aste
ĠSerÃ¡
Ġfeatured
Ġphys
Ġestaria
ticamente
Ġcolor
Ġepisode
endendo
Ġground
History
Ġhard
vista
Ġdeg
asc
cient
ĠLife
ĠnecessÃ¡rio
Ġcontrole
ĠMinister
Ġcast
Ġtrack
Ġcerca
Ã¡tico
ĠÃ¡rea
ĠfÃ©
ĠSun
Ġnessa
elhas
ghts
Ġang
Ġappeared
Ġmenino
umo
ĠFer
ĠQuero
Ġatravess
Ġregard
Ġwid
usion
ĠGal
Ġdirected
Ġcorredor
Ġflo
Ġabert
Ġquerer
Ġindependent
ipl
ĠJoseph
ected
Ġacabou
eias
#:
Ġmarket
usc
ĠprÃ³ximo
Ġmurmurou
Ġpassos
ken
atre
Ġficava
Ġtap
ĠSecond
Ġrio
iled
quir
icion
Ġdado
Ġprem
adium
ecido
not
ĠSov
ĠJoe
idar
Ġquiser
ĠFr
Ġprobably
ĠWhile
ators
Ġlaun
Ġtesta
Ġperformance
Ġfala
ĠLove
istir
Ġgem
ali
Ġpresident
Ġinstead
Ã©dio
ĠJournal
ĠJaneiro
Ġaument
Ġtour
Ġitself
ĠperÃŃodo
ĠIg
amou
ĠPenn
utor
ĠâĢĺ
Ġnomination
ĠMur
ĠBob
Le
Ġante
Ġpensei
Ġtend
Ġriu
Ġintelig
une
Ġrev
Ġalbums
Ġpaz
Ġcomport
Ġprincip
inar
Ġdeveloped
Ġinde
Ġimped
yclo
Ġori
Ã¡ss
ĠMount
uty
Ġportanto
Ġasp
Ġelimin
Ġagre
ĠMarc
Ġsubstitu
Ġestim
Ġcourse
Ġsure
ĠSanta
berg
Ġcris
Ġmedida
ĠCatholic
hold
Ġgl
Ġconduz
Ġcurrently
ĠTerra
Ġunderst
Ġsente
Ġrace
Ġmaravil
ĠSus
fr
Ġexperiment
Ġtemplate
Ġinim
Ġ("
ĠpolÃŃcia
ĠCat
Ġdispos
tivamente
Ġrelated
Ġolho
itada
rown
ĠBus
Ġmother
ĠJean
ifer
equ
Ġsearch
Ġocas
Ġamerican
ĠDar
Ġaccount
Ã§ada
Ġchamado
Ġsemelh
Ġperceber
Ġpassa
Ġesf
heu
Ġnews
Ġwhether
Ġincom
).*
ration
Ġauto
ources
bour
anhia
Ġpi
Ġencontrou
Ġtemper
American
Ġhotel
Ġespera
ĠPap
ĠLee
Ġeffec
heiros
Ġespir
ĠMem
Ġpediu
Ġprovide
burg
Ġemplo
andal
Ġill
visÃ£o
Ġengan
Ã©rc
Wik
Ġbackground
Ġchance
Ġsubst
Ġgostaria
Ġdentes
Ġros
Ġfire
ĠFin
Ġconnec
irei
ban
onel
ĠOnde
Ġnisso
Ġcedo
Ġcans
Ġvag
FA
Ġanimal
lim
Ġsemanas
ĠsÃ©rie
ĠTec
Ġador
ĠClass
Ġexpl
Ġpercebeu
ĠMuito
ĠArg
Ġmam
idel
.;
Ġextern
olo
Ġbate
Ġconhecer
ĠRod
rol
Ġschools
ocal
Ġcompanies
onom
istry
ĠLord
Ġjournal
Ġsin
acters
Ġblo
riel
Ġler
redo
Ġliving
Ġchu
atÃ³rio
Ġadap
Wh
ĠExternal
Ġtotalmente
ĠDel
tt
ÃŃnio
Ġdate
Ġcategor
Ġformed
Ġouvido
ĠLev
ĠCla
uo
Ġprovided
mond
ĠEliz
writ
intura
tempor
Ġcall
Ġdest
usive
Ġbig
Ġevol
ification
Ġpast
acy
Ġlembrar
ĠSeries
ĠHa
Ġradio
ĠSummer
icidade
Ġactually
Ġnela
Ġdocument
Ġpareceu
Ġstage
Ġcampaign
uments
ĠPelo
Ġcross
ĠMos
Ġafir
ested
ĠFC
inado
enso
Ġstated
ĠScience
Ġappears
ĠidÃ©ia
ĠMax
iers
ĠescritÃ³rio
Ġspace
ĠCop
ĠFestival
Ġcrime
Ġfec
Ġarri
Ġhip
lag
Ã³d
.""
ods
dades
orda
Ġmanif
abel
Ġdevo
Ġaction
Ġtopic
ĠCD
Ġinteresse
Ġcolocar
Ġfilme
Ġpeg
Ġtirou
Ġestrada
osos
Ġfrequ
Ġamiga
Ġconduc
Ġgesto
Ġprocura
ĠChampionships
Ġtempos
ured
inner
Ġbuildings
spap
...âĢĶ
Ġtrat
ĠCivil
Ġsexual
Ġll
Ġplane
Ġsentou
ĠdÃ©c
Ġrecom
anna
igan
ĠPortugal
Ġrul
Ġsuje
zil
ĠIreland
Ġthings
Ġhous
Ġmudar
ĠRel
Ġcuidado
Ġperc
ĠCult
Ġenergia
ĠEg
culo
bas
Ġincludes
bur
Ġkilled
Ġmorto
estre
Ġhumano
ĠCarlos
Ġevitar
Ġsozinha
ĠCarolina
ĠSom
Ġemerg
Ġrights
Ġcaracter
Ġcostum
mes
olas
ĠSpace
ĠLinks
Ġtax
Ġbati
chas
Ġlear
ĠPedro
Ġfaria
Ġtam
Ġjard
Ġmeans
ĠVirginia
Ġstop
Ġfront
allen
Ġconqu
ndos
Ġmultiple
Ġfootballers
ĠArtic
vironment
xford
Ġrespon
Ġbeijo
Ã§ando
Ġlot
embly
ĠLake
itional
ĠSteph
Ġmatar
ĠpÃºblico
Ġmenti
uses
Ġprior
tigos
Ġcomida
ĠConf
Ġvento
ĠsÃ©rio
romp
Ġdaughter
Ġnumer
Ġguarda
Ġyoung
Ġmusical
Ġnames
Ġbirth
ĠEsper
Ġgive
Ġbis
Ġcaiu
reas
Ġbusca
Ġearl
ĠesperanÃ§a
Ġmel
igu
Ġsuggest
Ġcarne
ping
Qu
Ġvejo
Ġmix
Ġescuro
ouro
ĠTim
ĠaÃ§Ã£o
kson
aking
OR
ĠObrig
lice
ĠÃºltimos
ĠDen
ĠRailway
ĠJon
ett
Ġlentamente
Ġeas
Ġexamin
Ã©cn
Ġmadeira
ĠTime
Ġfemin
ĠPac
etros
Ġcorrendo
ĠTour
Ġhes
undo
cou
ĠDoc
oting
Ġbreve
rite
Ġcavalo
ols
alo
Ġrank
ĠEdward
Ġstates
Ġfossem
Ġacer
Ġenvol
Ġtomou
Ġrepres
Ġnorte
Ġven
Ġarte
Ġthought
Ġdetal
Ġcrist
Ġmex
dy
Ġergueu
Ġcanto
Ġsaud
Ġalmost
Ġaverage
Ġsuccessful
OS
Ġcommit
Ġsl
ubro
ĠApr
ĠEss
ĠJust
Ġtanta
Ġluta
Ġbater
ĠOther
Ġenfrent
Ġdesf
ĠIP
Ġumas
Ġcheiro
cup
Ġperguntar
Ġhealth
Ġatir
Ġprimary
ĠCommun
ganta
Ġeast
Ġacadem
Ġspecific
Ġcoup
Ġmilitar
Ġimporta
jeto
ĠBig
Ġsoft
Ġ',
ĠCast
play
Ġponta
Ġpobre
Ġescrever
Ġmunicipal
ĠImp
Ġever
ĠVan
known
ountain
Ġlei
Ġfollowed
ette
ĠThanks
Ġcust
Ġprome
Ġfres
Ġalmo
Ġrange
ĠsÃŃ
ĠVen
utch
aixon
ĠfazÃª
Ġprotest
ĠcrÃŃ
Ġmakes
times
idez
Ġbanco
ĠVo
ĠSecret
Ġsuppor
Ġdessas
aso
over
mittee
Ġplaying
ĠAndrew
Ġword
ĠSwed
Ġmetal
Ġself
Ġcarreg
Ġesteja
Ġhabit
Ġconfor
ĠPolit
ĠWiki
Ġfeel
ĠSoviet
Ġmostrar
ĠforÃ§as
.#
Ġstudy
izou
esc
orrer
Ġchamar
sta
Ã©u
ĠOrder
round
ource
ĠForce
Ġrecep
Ġ-,
Ġtur
ĠFilms
ĠStr
Ġaddress
ĠRam
Ġwest
aixÃ£o
ements
Ġmodel
lie
Ġculpa
ĠHaw
mercial
grama
ĠSei
Ġuso
Ġoutside
Ġidentific
well
Ġsuf
Ġresponder
name
Ġperformed
ĠBern
Ġchanges
Ġcharacters
Ġalter
Ġgarganta
Ġapre
Ġdaqui
ĠserviÃ§o
kra
mary
Ġvirt
west
Ġcasar
bec
Ġnominated
ogle
bridge
Ġconstruction
ĠSpecial
Ġfechou
ĠNinguÃ©m
Ġefeito
Ġupon
Ġregist
Ġsess
Ġmomentos
Ġcheio
ĠGil
Ġrelev
Ġoficial
;"
Ġdeixa
ĠFound
ĠOld
Â·
uls
ugby
hado
leza
oung
Ãºde
tidos
Ġfemale
ĠArts
Ġroupa
Ġcaixa
ÃŃg
Ã¢ne
Ġwriting
ostos
head
ĠRh
ĠGod
TV
Ġminor
An
Ã©rcito
olit
Ġartists
orpor
Ġcreate
Ġger
ĠNick
hire
oms
arily
Ġoriginally
Ġestra
OT
Ġilumin
Ġarchitect
Ġmetros
ĠexistÃªncia
aries
ĠTwo
Ġgostava
vesse
ĠLem
Ġlack
Ġcountries
endi
Ġtua
Ġapaixon
Ġchefe
Ġcant
Ġ{
Ġvira
Ġfesta
Ġediting
Ġdestro
eek
kins
Ġju
ĠUnd
Ġfeatures
Ġcut
Ġsofr
Ġdedo
Ġartigo
Ġstations
action
ledge
Ġmedal
ustry
ĠBec
Ġalem
Ġsugges
gl
Ġvid
US
ĠBrazil
aker
Ġartist
ĠSat
Ġescon
face
oper
Ġusually
Ġpromoted
win
ĠTechn
Ġlikely
ĠResearch
ĠSand
ĠimpossÃŃvel
pon
Ã´nio
ĠGovernment
aindo
Ġbaixa
ĠrespiraÃ§Ã£o
Ġtar
resso
edes
yan
atory
ĠCommission
Ġvac
Ġerrado
Ġgre
Ġdesigned
Ġconhecido
annel
ĠprincÃŃpio
rac
timas
Ġdesses
Ġapartamento
ĠFlorida
Ġadvance
Ġdebaixo
Ġabaixo
Ġpassando
ĠIll
Ġalegria
Ã¢nico
Ġliberdade
arc
itÃ£o
ĠElizabeth
Ġminu
ĠProfess
Ġmental
utebol
Ġanything
ĠMike
Ġench
Ġsexo
ropa
ĠLiga
span
Ġaccep
ĠPlan
ĠFern
discuss
Ġorigin
ĠPois
gens
Ġcolo
Ġmord
ER
ÃŃcios
Ġlav
ĠEmbora
Ġlarg
ĠMost
Ġexplor
oll
Ġpan
Ġpolice
Ã©ria
ĠDirector
ĠService
Ġboard
Ġteu
ĠregiÃ£o
Ġintens
ĠGood
Ġpis
Ġpec
ĠKn
Ġforces
ĠCommittee
ĠBa
Ġleading
He
Ġcases
ĠBom
ĠDie
Ġnom
Ġsete
anhÃ£
ids
Ġstatus
Ġfuture
Ġtravel
entei
ĠGrande
Ġcamisa
Ġbrother
set
Ġrid
umentos
Ġcondit
Ġafirm
FC
ĠprÃ³xima
Ġexpla
Ġrecus
Ġdispar
Â°
onde
Ġfinished
Ġseven
ounts
Ġestrut
Ġnothing
Ġsonho
Ġalways
ĠEducation
Ġaproximou
Ġcultural
Ġespecially
Ġconversar
ĠDemocratic
ĠRay
Ġelse
Ġcient
Ġisn
athan
town
Ġmeth
Ġhumana
ĠcondiÃ§Ãµes
Ġprimeiros
Ġconflic
ancial
Ġkill
ĠIrish
Ġcomunic
road
ĠinformaÃ§Ãµes
Ġconhecia
Ġflow
ĠpÃ´s
Ġhouve
ĠTop
Ġvit
Ġplaced
Ġreferences
ĠGuard
oston
Ġlargest
ressa
Ġcheia
ĠItaly
NA
Ġtreat
IA
Ġreplaced
Ġsul
Ġreached
Ġfight
ĠDisse
Ġolha
ĠFederal
thur
aving
Ġcad
Ġpensa
Ġquerida
tembro
Ġsaw
Ġdireita
Ġaspec
ĠParece
ĠIntern
can
Ġsays
band
ĠKen
ĠAlso
ĠColumb
Ġqueim
ĠesforÃ§o
ĠCongress
ĠOxford
ĠLady
ĠÃ¢
ĠCle
ĠdecisÃ£o
Ġnovas
Ġsuspe
Ġnariz
Ġcolla
ĠHun
Ġawarded
Ġrespec
ĠMexico
Ġpreviously
Ġsilenc
Ġaircraft
Ġproced
uter
ĠirmÃ£os
rison
Ġperguntas
ĠimportÃ¢ncia
ulaÃ§Ã£o
Ġfazem
Ġfing
ĠtÃ©cn
Ã£es
ediate
Ġsolo
Ġadver
abilidade
Ġhost
ĠOct
Ġmonitor
Ġresist
Ġod
Ġcontou
Ġvinha
Ġcheck
Ap
off
Ġtraining
Ġba
Ġesquerda
Ġsubsequent
Ġarqu
Ġpred
Ġdevem
Ġcav
Ġbi
ĠWales
Ġneeds
redito
Ġprec
Ġempresa
Ġpareciam
Ġusando
ograph
estra
Ġthroughout
Ġtare
Ġkey
Ġcompanhia
reme
ĠOk
ĠvÃ¡
ĠIts
ĠMov
ĠÃ¡rvores
Ġvindo
Ġsozinho
lying
Ġsomos
Ġnewspap
Ġprivate
Ġremained
ĠOpen
Ġarrep
ĠPrem
Ġsentado
Ġestablishments
ilia
lit
ĠJones
Ġexplicar
Ġbelieve
Ġdeser
ĠLondres
Ġcontato
ĠLiber
Ġnote
Ġyet
Ġparecer
ĠMet
ĠPrince
ĠBud
Ġdesaf
Ã©rica
Ġacus
Ġmembros
Ġouro
Ġras
Ġpropor
ĠLet
lect
Ġpeso
Ġimaginar
ĠCristo
igar
Ġinterromp
inals
Ġbad
ĠNavy
Ġpresid
Ġserem
Ġidea
Ġdesco
Ġactive
Ġvivo
ĠEmpire
ĠnÃŃvel
ĠFaz
ĠRen
arÃ¡
IS
ĠNorthern
Ġpensava
Ġstandard
Ġfundament
nes
cida
Ġadditional
Ġsequ
tein
Ġimpac
Ġreference
Ãºp
ĠAnton
ĠdÃ³
ĠBattle
Ġmeas
ountry
Ġnesta
Ġeight
Ġplaces
Ġpassava
ĠFranÃ§a
Ġnovos
obo
Ġreading
Ġpuxou
ĠAtlan
Ġeventually
Ġdevido
illy
Ġrecuper
ĠDun
ĠLeon
Ġgain
Ele
Ã©tica
ĠArab
ĠMich
ĠVai
Ġconsist
ĠamanhÃ£
enham
Ġequipe
olf
Ġlonga
eds
Ġrequired
BA
Ġlegis
ĠprÃ³prios
Ġportugu
Ġdol
Ġgold
Ġserve
ĠFeb
Ġargument
Ġverdadeiro
ĠRussia
ĠAlbum
ĠWood
rap
ĠDid
Ġintroduced
Ġgenerally
Ġachie
Ġplant
uis
Ġsch
iza
Ġbit
Ġvermelho
Ġdestino
vos
Ġbox
people
Ġcourt
eliz
telo
Ġhit
Ġcollege
ilos
Ġdecided
Ġsucesso
Ġsentimentos
Ġreach
ĠPen
ĠHistoric
Ġoportunidade
Ġresultado
quei
uindo
riga
Ġidentif
ĠRog
ibl
Ġtocar
ID
ĠAccording
Ġmorreu
ĠPeak
ĠSimon
bar
Ġmetade
hi
ĠLong
ift
Ġimpression
ĠRevol
urso
Ġcultura
Ġapareceu
enou
Ġconven
Ġwriter
Ġwhose
Ġplease
Ġmonth
urar
Ġaus
Ġcem
ĠYoung
Ġnotice
Ġfu
tured
ĠPost
Ġscored
ustra
Ġjovens
Ġcombin
Ġcel
ĠFol
vens
Ġoverlap
ylvan
Ġsize
Ġmensagem
ÃŃcias
Ġviz
ĠScot
ansas
Ġpay
inces
ĠTro
Ġaccording
Ġpolitician
ĠParliament
elha
ustrial
Ġvan
ĠBoston
ĠDev
ival
iction
Ġidio
Ġlingu
ĠCross
Ã¡g
ĠLand
ĠSy
ĠPub
ĠBlue
iber
ÃŃl
entar
Ġaliment
Ġamo
Ġfizeram
Ġcasos
ray
Ġcompetition
Ġonline
ĠBor
Ġigual
Ġpossibilidade
Ġexclamou
New
ĠWilliams
Ġvendo
Ġtag
ĠRadio
Ġforce
omatic
Ġtranqu
Ġbasketball
iting
osas
Ġreve
icle
Ġsuger
ager
ĠSul
ĠEll
ych
Ġrailway
ĠHou
Ġkind
Ġfair
ends
Ġaberta
Ã´nia
gues
Ġdidn
Ġarrast
Ã¡cio
Ġedition
ĠHarry
ĠUkra
Ġstaff
Ġblacklist
Ġdemonstra
Ġran
ĠHam
Ġvote
Ġafastou
ĠfaÃ§a
Ġmencion
Ġtournament
Ġsr
Ġperguntei
Ġficaram
Ġsinger
ĠBook
Ġnight
Ġtermos
Ġbehind
Ġdegree
Ġanimais
ĠUr
bb
Ġfiquei
FL
Ġtaking
tock
Ġchoc
Ġhumanos
Ġallowed
Ġcertamente
Ġsaying
Ġgoal
Ġaquelas
Ġbrought
ĠHom
Ġenx
Ġpresidente
Ġplat
Ġpropried
anger
ĠOlympics
Ġguer
ĠJeff
ĠpÃ´de
Ġigreja
ĠmemÃ³ria
ĠDelete
Ġrule
Ġculture
tores
ionais
It
Ġcuidados
vered
ĠTotal
amily
Ġjulg
guage
Ġterms
Ġlonger
ĠMedia
Ġgosta
ylvania
ĠpÃ¡l
Ġorganization
guas
wa
ading
Ġreti
Ġgas
iant
Ġwriters
Ġmoral
ĠAntes
ĠLar
Ġloss
ĠRom
ĠOlympic
Ġwords
Ġsegundos
anos
Ġcolon
Ġtexto
ĠAssembly
Ġfalava
ĠAlexander
Mar
ĠTelevision
%)
ĠBla
Ġmelhores
ĠJewish
ĠindivÃŃd
Ġenfer
Ġportas
ĠcomeÃ§a
Ġtou
Ġpil
ĠÐ
Ġlower
ĠÃ¡l
ĠIsto
ĠGreek
Ġful
ĠStadium
Ġmess
Ġphotogra
irando
ĠHos
Ġfranz
ĠJackson
Ġapplic
onze
rod
ĠJohnson
war
Ġdomain
Ġoito
Ã³vel
Ġtowards
ests
Ġnuc
ĠimpressÃ£o
ĠArm
ĠJr
ĠOf
orreu
Ã¶
ĠopiniÃ£o
ĠAust
Ġparts
Ġfourth
fDed
ĠNacional
quia
quare
ĠGene
Ġinclinou
Ġprocurar
-na
Ġsobran
Ġcontinuava
temun
tras
ĠCre
uÃ§Ãµes
Ġexhib
ĠcomeÃ§aram
isto
ĠEuropa
ĠQuanto
udes
ĨĴ
more
Ġrequire
eler
Ġolhava
Ġsoub
hood
ĠKent
nguage
orge
ĠArgent
ĠJersey
Ã´s
ales
ĠterÃ¡
Is
Ġesconder
aged
Ġacontecendo
ught
Ġperdido
urs
Ġmedic
St
Ġvinho
Ġbranca
ĠCra
Ã©dia
ĠmoÃ§a
Comment
ĠmÃŃn
Ġsacud
Ġprincipalmente
Ġdiga
Ġfunction
Ġpron
ĠâĢĶ,
ĠLibrary
Ã³sito
Ġepisodes
Ġsap
Em
ĠEnter
Ãµe
Ġcach
ĠBow
Ġlugares
âĢ¦
Ġbenef
Ġpisc
Ġthing
List
Ġparedes
Ġnoted
Ġtab
etry
Ġmissing
Ġschol
oro
Ġverde
enny
Ġdecision
Ġgaroto
aric
uted
Ġsimply
Ġchamou
Ġleit
ili
Ġcena
tains
ĠHor
ÃŃss
Ġprocurando
ĠReview
ritos
Ġunits
based
ĠSempre
mm
Ġobservou
Ġbehav
Ġ")
Ġterror
Ġvocals
Ġrelationship
ĠcÃ©re
ĠbebÃª
Ġdiffic
arly
wan
Ġpontos
Ġexce
Ġsubmit
Ġarmas
ÃŃncipe
Ġproblems
Ġespecialmente
Ġescada
itz
Ġpoderiam
Ġtraditional
rich
Ġformas
Ġconsegue
ĠmilhÃµes
ĠPerg
ĠPosso
ĠUnder
teu
like
reto
para
istiu
ĠIndepend
ulation
Ġsoon
Ġscience
Ġfeita
ĠBuild
Ġpublish
Ġaprove
Ġpequenos
Ġestes
Ġvul
ĠTw
ĠJusti
Ġsuave
ĠÃŃ
ĠinformaÃ§Ã£o
lÃªs
Ġdesenvolvimento
Ġkn
Ġmovement
ÃŃram
Ġoccup
Ġrecords
ĠKim
ien
Ġresponse
haps
Ġanunci
Ġcontract
Ġagree
ĠEngine
ĠAven
ĠBase
cada
eiÃ§Ã£o
Ġcontain
Ġfle
att
ax
onic
sylvania
eign
Ġlevantar
Ġassentiu
ĠCro
Ġleader
Ġparti
Ġimages
Ġtais
Ġpend
Ġparal
ĠDam
Ġtip
pla
lling
Ġaplic
Ġce
Ġgaran
ini
ĠFac
Ġactress
Ġcommercial
Ġdesconhe
Ġassassin
Ġcompreender
ĠmÃªs
Ġneeded
encer
Ġesquecer
gs
ĠIS
bon
NG
ĠValley
ĠApenas
Ġsabendo
Ġchama
Ġsinc
Ã¡lia
Ġverific
Ġvon
ĠinglÃªs
ĠAsh
Ġfranc
Ġrecent
Ġescut
ging
Care
ĠGabriel
Ġestas
Ġdiscu
align
Ġpodiam
ĠOver
Ġrestor
Ġleave
Ġpedido
ĠÃŃn
Ġfigura
Ġachava
jou
jetos
Ġfile
Ġsoube
Ġclaims
Ac
Ã¨
ĠRon
Ġconsum
ĠAnna
lah
Ġinterview
Ġretorn
Ġpreto
ĠForm
Ġhorror
Ġperturb
!âĢĶ
aylor
ĠescuridÃ£o
aster
uit
ĠReal
Ġparties
Ġstri
uge
rief
Ġlista
elves
ĠGoogle
ĠSouthern
enÃ§as
aled
Ġcuja
Ġfelicidade
ĠQueen
ocidade
Ġhol
Ġprova
Ġsemi
Ġcade
Ġrestr
ĠBis
ĠGa
)(
ĠLis
Ġtorna
ĠFort
ops
Ġattac
Ġsoltou
Ġmagn
ulty
ontes
ĠEnd
John
ĠMichigan
ĠBoard
Ġapanh
ĠScottish
Ġwhole
amo
Ġtransport
atriate
allery
vation
velopment
Ġadequ
Ġfederal
vereiro
ĠArthur
Ġshot
ĠSenti
tainment
ivos
ds
gas
Ġcollection
Ġfrequent
Ġseguiu
ĠproduÃ§Ã£o
lise
Ġbolso
Ġtestemun
,âĢĿ
ailed
Ġgran
ĠSarah
book
ĠLes
ĠVilla
Ġactor
Ġparticularly
Ġcard
Ġpagar
idad
ilidades
ĠSpain
Ġbeleza
ĠApesar
fficient
Ġsuav
cional
Ġfif
ĠDurante
Ġsoldados
Ġafirma
entific
Âª
bles
):*
iava
ĠBank
Ġjoelhos
Ġacrescentou
Ġwoman
Ġhours
Ġsop
ĠOrgan
Ġfort
uso
Ġdiminu
Ġearlier
Ġconsequ
imate
yo
ĠRacing
Ġcapacidade
ĠdiferenÃ§a
ĠKel
Ġtrop
Ġgarra
Ġmagazine
Ġul
Ġrir
ĠBrig
Ġquick
Ġbomb
airs
bl
Ġtio
)|
Ġgenti
Ġaceitar
ĠStan
ĠPennsylvania
Ġdemor
Career
Ġlength
ĠsaÃºde
Ġespalh
ĠSince
Ġcannot
Ġacabar
Ġassociation
ĠOhio
User
zes
ĠMajor
Ġstructure
ĠcÃ©rebro
ires
Ġattended
Ġlembran
Ġquite
Ġlimp
ĠpÃ´r
Ġproducer
iados
Ġsentimento
left
ĠDutch
ĠprÃ¡tica
Ġthus
Ġconstruc
ĠGeorgia
inners
ube
Ġglobal
uiu
Ġsometimes
Ġshown
ĠVictoria
ĠCOIBot
Ġgirl
Ġinteiro
ĠcomeÃ§o
Ġmaio
ĠNic
Ġvalue
ampion
yclop
Ġboas
Ġmesmos
ĠDi
upos
)"
pris
Ġgolpe
ension
ĠField
ĠJane
ÃŃculo
oda
Ġjaneiro
Ġbateu
Ġsegurando
Ġsingles
ĠNight
Ġsombra
ĠCA
ĠterrÃŃvel
Ġpsic
Ġgel
Ġ([
ĠrelaÃ§Ãµes
ĠChief
etas
Ġchuva
ĠBet
rÃ¡
Ġdraft
Ġdup
Ã¢ncias
Ġataque
ĠTony
Ġcalculated
Ġcopo
Ġsentar
Ġbur
ĠRegister
ĠmudanÃ§a
Ġatual
come
asing
arden
Ġep
Ġacqu
tistics
ĠHealth
ĠSteve
ĠBon
rong
ĠRou
Ġestranha
ĠEconom
omos
iling
Ġescolha
Ġcontains
Ġasked
ĠEntre
Ġmission
Ġmob
Ġnacional
Ġtrip
Ġcorte
Ġsujeito
hamos
Ġtia
erais
istem
BS
wing
ĠBre
cente
Ġcintura
azz
ĠLittle
ĠtÃŃtulo
cepÃ§Ã£o
ills
ministra
Ġtrata
Ġbeginning
Ġchampionship
Ġdeixado
Ġneigh
Ġperigo
Ġficando
Ġobjetivo
ĠIgreja
cendo
Ġnetwork
Ġefe
Ġqueixo
Ġbanho
ĠRepresent
ĠchÃ¡
Ġacaric
ĠSci
teg
Ġcorreu
ĠsofÃ¡
tention
ĠShar
discussÃ£o
Ġmatter
bury
Ġpassagem
shire
ĠMir
Ġindustry
Ġprison
Ġseparate
Sta
Ġcontempor
ĠAthle
Ġautom
Ġinferior
ĠOffice
Ġjardim
Ġking
Ġcontinue
ĠFA
ĠHenri
Ġdura
ĠBab
Ġperspec
Ġchart
Ġwhom
Ġlabor
ĠAnne
Ġpractice
Ġcoragem
ĠWay
ĠAlexand
Ġleva
far
Ġdoutor
Ġdemonstr
Ġobjec
OV
ĠMcC
ĠpopulaÃ§Ã£o
quar
Ġantigo
ĠgÃª
ĠTheatre
Ġhumor
ctive
Ġsystems
with
hÃ£o
Ġisol
Ġsociais
Ġchamada
ĠPak
ĠConference
Ġintegr
Ġlen
ĠIngl
Ġaprender
uff
Ġpenet
ĠAsian
Ġencontrava
ĠChild
vido
ĠAnth
Ġverdadeira
Ġattempt
Ġgoals
atia
Ġesquec
Ġcasas
ersonal
Ġcomprar
Ge
umar
burgh
ĠWeek
ydney
Ġtrying
Ġrecebeu
ĠLine
Ġvolume
ĠAsia
Ġpersegu
Project
iter
Ġuses
Ġalun
inois
Ġdesped
Ġdesvi
mark
ĠmarÃ§o
vard
Sp
Ġcomand
Ġstudies
Ġended
erve
ĠIl
ĠPho
Ġdign
Ġfome
ĠSor
ĠtÃª
anted
ĠGirl
Ġapertou
ĠconfianÃ§a
Ġprograma
tudo
ĠCambridge
Ġseguro
ĠbalanÃ§ou
Ġhigher
tada
Ġmanuf
urado
ĠScotland
Ġdespre
Ġthems
uar
ĠNatal
Ġadop
lean
ĠAqui
ĠRem
Ġtry
Ġmoney
riage
hema
Ġreform
Ġecon
ĠMedal
ept
Ġcorrect
Ġpadr
ĠCard
Ġconstante
Ġtable
Ġpurch
Ġsono
Ġdigital
Ġdoing
anced
Ã´mago
Ġsussurrou
ĠmÃ¡qu
amar
ĠCare
ĠTemplate
Ġsetembro
Ġmaiores
Ġdados
vidas
Ġlove
ĠUniversidade
Ġdefeated
ĠPrinc
Ġmajority
ĠLim
Ġrunning
Af
iosos
ĠBran
Ġsust
rados
Ġpartes
Ġimmediate
Ġoutubro
Ġdesconf
ĠintenÃ§Ã£o
Ġstudio
Ġwinning
ario
ĠSeria
Ġthreat
ĠIslam
ĠEpis
ysis
Ġthemselves
heast
Ġdoce
Ġpression
veja
ucky
ĠMiddle
Ġhousehold
ĠConstitu
uts
Ġscreen
upp
Ġjulho
Ġavo
Ã¡r
Ġborder
Ġetern
Ġsorrindo
nam
Ġama
Ġpronto
ĠTy
Ġbring
ĠRose
erna
Ġprofundamente
Ġjunho
Ã¡vamos
Ġacontece
Ġvale
gn
Ġevidente
Ġmeaning
ĠAlthough
ĠBritain
Ġteoria
Ġquanti
Ġbor
Ġincorpor
Ġbuscar
Ġhistorical
ĠFoundation
Ġquisesse
ĠNenhum
Ġontem
Ġconflict
Ġpausa
Ġsyn
etts
Ġprojeto
Ġagosto
Ġabril
ĠDoug
Ġgrito
ĠtelevisÃ£o
Ġassociated
inian
ĠGuerra
Ġmerc
iblio
iria
Ġcalma
Ġvaria
??
yclopedia
Ġrar
lowing
ĠPacific
ĠDraft
ĠShow
Ġprossegu
Ġlocation
cher
Ġcriar
Ġtrouxe
lares
Ġfinish
Ġapproach
Ġdistingu
ĠUl
Ġspo
ĠestÃ´mago
Ġdepressa
Ġvandal
Ġanyone
ĠmultidÃ£o
ĠfaÃ§o
Ġdipl
ĠBrian
Ġapress
Ġparado
Ġrecl
ĠhistÃ³rias
Ġdescul
Ġapoio
Ġsuspirou
RA
ĠRepublican
zar
Ġpoor
mun
rub
Ġtocou
ĠPhilipp
cÃ£o
ĠAndr
box
ockey
ĠAlf
ĠpoderÃ¡
Ġensin
iance
Ġtelefon
Ġbolsa
Ġvs
Ġdivision
Ġbil
Ġjob
Ġpadre
ĠAmb
Ġcomportamento
Ġruns
Ġbattle
ĠIllinois
Ġtrinta
Ġdestin
die
cu
Ã³rios
Ġavi
Ġexternas
Ġmostly
atives
ĠPhilip
ĠMid
Ġdezembro
Ġexperience
ĠVocÃªs
aterra
Ġconjunto
ĠtÃº
achus
umber
Ġtamanho
lign
ĠLiv
Ġquil
Ġtheory
Ġcobert
Ġantiga
ĠColumbia
Ġquestions
Ġambiente
ĠBooks
ĠHuman
Ġatitude
usias
Ġsha
Ġrepresented
ĠTaylor
Ġobjeto
Ġopinion
Sim
ĠBand
Ġduro
Ġacal
ĠGer
real
ES
ania
Ġexplos
Ġbarulho
irava
Ġentry
ĠHome
achusetts
Ġchief
ĠPrime
ĠKong
Ġadvog
Ġesteve
ĠAno
|-|
Ġexplicou
Ġcontinua
ĠLew
ĠcapitÃ£o
Report
ĠClar
Ġsejam
Ġsentada
ĠtÃ¡
Ġmudou
Ġdecidiu
Ġpresented
fin
Ġneut
echan
Ġunderstand
Ġweeks
Ġveh
ĠEth
Ġsouthern
Ġbonita
igr
Ġdrop
Ġlimited
Ġaer
Ġincap
ĠSystem
Ġsupported
Ġfocus
icted
Ġvidro
Ġnine
ĠDer
Ġfish
ĠestÃ¡vamos
Ġcelebra
Ġcandidate
ulh
Ġvest
ĠSk
Ġfall
Ġlos
cle
chester
tÃ©
Ġcujo
ĠStephen
Ġempreg
Ġquality
enty
Ġroman
ĠEastern
Ġrisco
Ġsand
Ġorigem
Ġriver
Ġtrue
Ġopening
Ġobed
ĠBrad
Ġopera
Ġclasse
ĠSydney
Ġruas
ursos
Ġtoday
bers
ÃŃcie
cement
ĠpaÃŃses
Ġmortos
ondo
Ġcovered
ĠTenn
Ġestilo
ĠCorn
Por
Ġnumerous
ĠSea
::*
ising
Ġdisser
Ġspent
ĠLor
Ġarmy
Ġcaused
ĠCentre
Ġmurder
Ġmau
ĠsenÃ£o
ĠOrig
Ġprogress
MA
Ġard
ouco
ĠHard
Ġappearance
Ã©tico
Ġcommission
Ġstudent
Ġdei
Ġcumpr
Ġreflex
mission
ĠBol
ĠCab
Ġido
Ġfugir
itivo
ĠParecia
teen
Ġloja
Ġowned
Ġatac
Ġmedical
Ġsenior
Ġwrong
ĠdiscussÃ£o
Ġshar
ĠSinto
uri
ĠmÃ©
Ġminuto
Ġescolh
ĠSoph
ĠAlguns
Ġbroadcast
Ġcategories
ĠlanÃ§ou
Ġmec
Ġguidel
Ġconhece
Ġnorthern
eline
Ġconsid
riam
ĠConn
ĠcaracterÃŃs
truc
ĠCarl
ĠCin
Ġchair
ĠStra
Wikipedia
ĠanÃ¡
Ġbreak
Ġgrupos
ĠLy
ĠpÃ¡gina
Ġafinal
Ġsegura
Ġemoc
Ġapproxim
Ġpequenas
Ġchorar
Ġpint
Ġbatalha
Ġblocked
ĠMassachusetts
Ġraised
Ġtort
Ġfood
ĠMP
change
Ġagarrou
Ġisland
ĠInglaterra
ĠIran
ĠBroad
Ġescreveu
Ġferro
Ġoperations
Ġdireitos
nia
ĠBul
Ġ"|
ĠÃ¡rvore
Ġinvas
Ġofficer
prote
ĠsalÃ£o
Ġmatches
ĠCS
Ġqualify
Ġproperty
Ġselected
:'
Ġreduz
Ġnomes
Ġplays
Ġfalei
Ġnegro
ĠDiz
Ġescapar
Ġbelong
Ġavoid
ĠPakistan
Ġdificuldade
yes
ĠLei
Ġreligious
ĠOri
uk
Ġdirectly
Ġobras
Ġmercado
ĠPic
ĠHospital
ÃŃfico
Ġnovembro
ĠOra
Ġespiritual
Ġlabel
Ġhighest
Ġlay
ĠAmÃ©rica
ĠrelÃ³g
Ġenvironment
Ġtoque
ĠPolish
Ġsettle
Ġlaunched
Ġmerda
Ġwide
Ġfamos
ĠlÃŃder
Ġdiretamente
ĠavanÃ§
ĠWrit
down
Ġha
Ġurb
Ġexib
Ġcontas
Ġtim
ĠDig
Ġafastar
Ġtell
Ġseasons
ĠWilson
Ġcreation
Ġilha
ĠeducaÃ§Ã£o
ĠOlhe
xa
ĠCome
Early
Ġidiota
ĠCoast
Ġlines
Ã³is
Ġond
Ġlived
Ġvisual
Ġrepar
Ġsag
lav
Ġconforme
Ġelections
rigo
Ġcorpos
adel
Ġgig
Ġseres
Ġculp
riÃ§Ã£o
Ġcong
otas
Ġestendeu
Ġprecisar
ĠBusiness
ĠHong
ĠMain
Ġcinema
Ġaccounts
unda
Ġrealiz
ĠBang
Ġclaimed
Ġinqu
Ġinclusive
TO
Ġexpos
ĠconstruÃ§Ã£o
Ġsoubesse
unst
ĠMargar
Ġfurios
Ġsense
Ġflor
ĠKate
ĠNesse
osamente
Ġaspecto
Ġvazio
Ġobservando
ĠPorÃ©m
Ġcuidar
Ġasse
Ġpertenc
ĠFord
Ġnarra
ricket
ask
ĠHolly
Ġportra
Ġcartas
Ġentend
ĠWater
ĠsÃ¡b
where
ĠLogo
Ġbronze
ancy
Ġmanager
Ġlevando
tid
Ġwood
Ġespada
Ġcoast
ĠPers
Ġsubir
Ġminutes
Ġcontrovers
estade
ĠPens
Ġsons
ĠsaÃŃda
Ġsonhos
ĠIsabel
Ġsuspiro
Ġroute
Ġimportantes
.**
Ġformal
ĠPier
Ġress
Ġcarreira
ĠSpe
ĠChap
velmente
Ġvisita
Ġtold
ĠSabe
mont
ÃŃda
ĠprÃ³prias
worth
Ġbecoming
ĠHal
Ġamava
Ġtransmit
atas
Ġdemas
Ġbrief
Ġbanheiro
ĠEric
ĠDesde
ĠLatin
Ãºdo
Ġsurround
ĠAna
Ġconsegui
nic
Ġalleg
Ġformat
Ġexpans
ortÃ¡vel
ĠBarb
Ġfacto
ening
Ġsock
ĠpedaÃ§o
Ġsett
Ġunif
Ġcounty
Ġdoente
Ġintim
CO
Ġencant
Ġwanted
ĠGame
ĠâĨĴ
ĠWikiProject
Ġprestes
tered
logo
ories
Ġfirme
Ġpous
Ġato
oco
Ġcigar
Ġorient
Ġacesso
Ġcontemp
ĠAlice
cando
ĠIV
Ġcomput
ĠFree
Ġsegredo
ĠWork
Ġactivities
ĠMore
ĠHear
math
Ġconcordou
Ġtrain
Ġgrave
Ġcensus
itle
ĠnotÃŃcia
Ġtakes
Ġsites
Ġcomplic
Ġproteg
Ġattra
Ġora
lyn
ĠcÃŃr
feira
ĠAddit
ĠXV
ĠSuas
ĠdeixÃ¡
Ġeleg
ecei
Ad
Ġencont
Ġpassed
ĠStor
ĠOper
yond
Ġdepend
Ġtrade
Ġbonito
posed
Ġcomentou
onder
ĪĴ
igas
Ġexcep
Ġstructures
Ġlinda
ners
consci
ĠPs
Ġpreso
usband
Ġuniversity
ĠpropÃ³sito
Ġsobretudo
ĠMatt
Ġtens
erap
ĠIns
()
heira
eca
Ġcelular
Ġdesenvol
Ġaux
ĠAdministra
Ġescrito
Ġscore
istro
ĠOt
ĠDevelopment
Ġacredito
Ġsubmitted
ĠEgyp
Ġplanos
ibliote
watch
Ġperdeu
Ġintended
Ġvelocidade
itation
Ġseriam
bos
oul
Ġmorr
Ġperfeitamente
Ġperp
Ġprofundo
Ġmachuc
Ġimple
Ġunit
uten
Ġsegurou
url
isters
ĠStation
vou
ĠNig
Ġinitially
ĠWat
Ġbeber
ĠaparÃªncia
Ġsci
Ġrecording
Ġentered
Os
ĠBell
graph
thes
riet
ono
Ġideal
ĠWalk
Ġtivessem
ĠSanto
ĠNos
cal
bil
Ġmante
ĠWild
ĠÃ³r
Ġmeeting
Ġaccomp
Ġsummer
Ġdespite
Ġterceiro
Ġfailed
hoso
Ġcra
uda
Ġcic
Ġderro
Ġpiano
ceb
Ġganhar
ache
ĠnegÃ³cios
Ġjanelas
Ġlados
Ġclearly
Ġflag
antry
ĠLemmon
onho
Est
ĠBelg
mad
Ġdaqueles
Ġerro
sia
Ġmys
Year
Ġretra
Ġdeixava
Ġmap
Ġdead
ĠprÃ³xim
Ġdetalhes
ĠJacob
Ġremains
ÃŃnhamos
Ġeffect
ĠWis
ĠgraÃ§a
ĠPublish
ĠÃĢs
TE
posto
Ġhouvesse
]]
Ġtrein
ĠprisÃ£o
Ġfarm
ĠeconÃ´m
radas
quisa
Ġdrum
ĠOliv
ĠCorpor
anhas
Ġexerc
which
emble
pes
ote
endas
ĠLight
iverso
Ġfonte
Ġmostra
range
ously
Ġrules
Ġpedras
emy
Ġespelho
Ġrod
Ġimpr
utamente
umas
Ġ"*
ĠNas
ĠMembers
Notes
Ġfevereiro
ĠRome
Ġestudo
Ġfaziam
Ġsacri
Ġbrilho
ificaÃ§Ã£o
aÃ§os
ĠAla
Ġpropriedade
indows
adura
ĠNone
Ġsuffer
ndia
pread
Ġimagens
ĠFI
ĠEarth
ĠMunicipal
Ġber
Ġcontributions
Ġmanagement
ĠTha
ĠBC
Ġtantas
Ġsoftware
ulta
ĠmamÃ£e
Ro
Ġestrem
ĠFour
Ġeth
ability
Ġtarefa
Ġchave
ript
tu
Ġbrig
Ãºblica
Ġcause
ĠXI
ĠGA
ĠâĢĵ:
Ġenergy
Ġcopyright
ĠYour
Ġmovimentos
ĠJord
formation
ĠDescul
ĠAirport
Ġbab
Ġestacion
ouri
Ġengol
ĠCada
ĠciÃªncia
,,
ĠBerlin
Ġago
Ġawards
Ġfotogra
Ġdisplay
estas
ĠHay
Ġdecor
Ġprofiss
Ġnavio
Ġconquist
Ã³rico
Ġolder
Ã£s
Ġmovie
ĠDomin
ĠNotes
Ġcollabor
Ġrainha
ĠrelÃ³gio
Ġaprend
Ġnewspaper
ĠRecord
Ġencontrado
ĠPremier
llig
Ġusava
ĠexÃ©rcito
Ġinvad
Ġcomes
Ġcompartil
sen
Ġboche
Ġoccas
Ġbrilhante
Ġattention
Ġpercent
Ġplatform
Ġstudied
ĠRoma
Ġforeign
Ġexterior
ĠreaÃ§Ã£o
Ġunion
ĠHead
urd
Ġdepart
Ġstarting
Ġneve
track
Ġresolver
Ġmic
Ġmorta
elle
Ġfrase
Ġchega
Ġtido
Ġci
Ġdiretor
hol
Ġexact
Ġdouble
Ġsuperf
Ġvotes
Ġpassaram
ĠnegÃ³cio
ĠViet
Ġconsult
ĠEarly
Ġjogar
Ġdevagar
todo
Ġorel
Ġficaria
inson
Ġactors
agre
atherine
Ġestrutura
ĠKitt
ears
ĠSher
Ġmind
Ġappl
Ġ**
Ġfizera
Ġtried
Ġrelax
ĠSlo
ĠProgram
emic
Ġincomod
Ġalar
Ġcircunst
ĠreuniÃ£o
Ġroom
United
Ġcavalos
Ġsort
Ġadoles
Ġacaso
ugg
Ġlooking
ĠJunior
Ġuploaded
ÃŃvio
Ġbond
ĠRyan
Ġeconomic
Ġcriado
ĠTrib
Ġtranspor
ev
ĠMul
Ġvice
Ġfamilies
Ġlarger
Ġcommand
ĠmissÃ£o
ĠWho
Ġdescans
Ġplanej
Ġfrances
Ġpaper
Ġwrite
Ġrit
Ġmascul
ĠQueria
ji
Ġdolor
ĠToronto
ĠdoenÃ§a
ĠNik
ĠPortugu
Ġlatter
Ġships
Ġnoites
Ġserious
For
ellow
Ġbela
ĠRoss
Ġbeijou
Ġinfin
ĠpeÃ§a
ĠverÃ£o
ĠdÃ©cada
Car
Ġincreased
ĠMart
Ġfinancial
Ġpromin
Ġperfeito
Ġemprego
Ġacontecido
Ġbons
Ġaliv
Ġdeixe
itage
ĠSpacewatch
ĠRoc
Ġpraia
Ġfoto
asta
Ġfit
Ġlists
Ġacost
vention
Ġchegaram
ĠSund
ĠPatrick
ĠTemos
Ġpick
Ġbarco
ounds
listed
ĠBan
ĠfunÃ§Ã£o
laps
ĠRap
Ġsuport
Ġorganis
teiro
ĠJam
Ġdistra
Ġfortes
ĠpreocupaÃ§Ã£o
urt
Ġvictory
Ġdirigiu
Ġoverall
Ġsubs
ĠaÃ§Ãµes
Ġsea
Ġfen
untos
ding
tha
ĠMinn
Ġrede
Ġcomedy
Ġfinance
Ġaccepted
ĠXX
Ġmiddle
ĠImag
ĠWalter
Ġintrod
Ġlux
Ġsister
Ġpraticamente
Ġtentativa
Ġfizesse
ĠKorea
Ġrapar
ĠMig
Ġwidth
Ġachou
ille
Ġleaving
ĠGovernor
irs
Ã³l
undred
Res
Ġcell
ivelmente
Ġexcel
Ã±
ego
Ġpersonnel
Ġruim
Ġconden
deia
stro
tero
umes
Ġregional
Ġclubs
Ġlas
atem
wide
Ġupd
boa
ĠAlb
ĠCountry
dra
Ġreviews
Ġadding
Ġaguard
Ġmeta
Ġexclus
Ġhusband
ĠdÃ³lares
ampa
Ġaspect
peon
Ġcentre
Ġweb
Ġreserv
quadron
Rec
Ġapos
Ġlutar
Ġnumbers
Ġsecur
ĠFreder
Ġinteira
Ġmodelo
Ġobs
aga
ĠMany
ded
Ġforced
Ġaberto
Ġworth
ĠCreek
Ġquarter
Ġavent
Ġabsor
itable
ĠocasiÃ£o
Ġconfess
Ġadult
Ġficado
eiras
Ġcouple
ĠmÃ¡ximo
Ġpet
ĠAccess
Ġoperated
plic
ĠpolÃŃtico
ĠprÃŃncipe
Ġdescre
ĠFair
ĠJess
ĠpaixÃ£o
irem
uÃŃa
Ġappar
Ġultim
Ġdour
Ġfloresta
ĠPreciso
agou
Ġwa
Ġdireto
Ġhonor
esia
Ġedif
Ġservir
Ġposto
Ġreferred
ani
After
Ġtrazer
ĠCruz
#"
Ġrenamed
Ġpartida
miss
nero
Ġprofunda
Ġtantos
Ġconserv
ict
Ġmol
ĠFire
ycl
Ġutiliz
avia
ĠÃ³b
ĠLegis
Ġpreced
Ġindustrial
Ġrob
Ġordens
ĠProvince
Ġideias
Ġcompletely
Ġterminar
Ġlembra
adelph
adelphia
ĠPet
Ġturned
ĠGolden
Fran
ĠnotÃŃcias
ĠPlaces
Ġapproximately
untou
Ġspeed
ĠDub
Ġprofissional
ieuten
Ġbass
idÃªncia
Ġdistante
Ġpesquis
Ġromance
Ġlanguages
Ġmuseum
Ġsecondary
LP
Mas
ĠPRODed
house
ĠAnthony
ĠcriaÃ§Ã£o
Ġvent
ropolit
Ġseat
Ġite
Ġlembro
ĠIra
onym
Ġpark
akes
irects
Ġment
ĠDia
Ġlidar
ĠImper
Ġbelieved
Ġcited
ĠLater
Ġknowledge
ĠHind
Ã©l
ĠLewis
Ġanswer
ĠBeat
Ġofficers
ĠCorps
ĠCommon
Ġgene
Ġfamous
GB
ĠPower
Ġencost
mir
Ġremaining
Ãºria
Ġexplod
Ġescrav
Ġaler
ariamente
Ġcasaco
Ġcinz
.'
ĠEstamos
center
wise
ĠTen
Ġinfeliz
Ġannual
ĠElas
Ġdescent
Ġserving
ĠFox
tial
ĠlevÃ¡
ĠHistÃ³ria
ĠMol
Ġlembrou
Ġnecessary
ĠTheir
eda
Ġquantidade
Pre
Ġ[[
fet
ĠCub
ĠMarsh
ivamente
Ġobter
Ġcompleto
Ġroub
Ġterminou
Ġluzes
Ġacademic
ÃŃlio
Im
aming
erald
Ġengra
ĠBlo
queza
Ġwestern
posiÃ§Ã£o
Ġouvidos
Ġreasons
ecendo
ĠIslands
Ġuseful
bourne
Ġrecently
Ġbank
Ġretired
ĠNich
ĠTre
Ġpref
ĠAlbert
Ġminim
adia
Ġsurv
ĠSE
ĠNow
Ġdesenh
Ġesm
ae
orning
Ġprojects
Ġrate
Ġdiversas
ĠLiter
ĠJay
ĠSecretary
Ġconcept
ĠCass
ĠfrancÃªs
azer
Ġagric
pite
ester
ĠPolice
Ġlevava
Ġpurpose
ÃŃfica
Ġsobreviv
intes
Ġofic
ĠVis
ĠfÃŃsica
pher
Ġcommunic
Ġperig
class
ĠRedirect
Ġachar
ĠCirc
semos
Ġsemelhante
ience
entou
Ġbag
Ġprograms
ĠDeath
ĠThree
Ġentusias
ĠKorean
Ġfail
And
Ġviva
lotte
ĠCho
ĠDavis
Ġfrag
Ġcart
Ġobvious
ips
Ġcasal
Ġpermitir
redited
Ġperdo
encies
ĠediÃ§Ã£o
Ġclasses
ĠProfessor
Ġproteger
Ġindividuals
ĠÂ£
Ġorganizations
esota
ĠAnti
Ġhelped
osofia
ĠLiz
ĠcondiÃ§Ã£o
Ġcontext
olis
Ġkept
Ġincrease
ĠSabia
Ġintr
ĠagradÃ¡vel
ĠAN
ilroad
ĠSenate
Ġdial
Ġregras
Ġvelhos
Ġvergon
eth
ĠQueens
ĠLaura
Ġclaramente
ĠColle
ĠLog
Ġbanc
Ġazuis
estic
ĠversÃ£o
Ġatribu
Ġtristeza
Ġurg
unte
Ġnamor
Ġpoucas
Ġsubsequently
ĠHot
ĠlÃ³g
ĠConst
ieutenant
tiz
Ġbasis
Ġinvolv
Ġobst
Ġlevado
Ġescolher
Ġpotential
ĠGon
Ġrelevant
Ġprincipais
âĢ¢
Ġparents
Ġgives
Ġsuic
ĠQuar
Ġacabado
Ġjogou
Ġlinguagem
ĠviolÃªncia
ĠJustice
Ġamount
rican
ĠprÃ©dio
Ġcastelo
Ġbura
Ġleis
Ġclean
ĠArticles
Ġescadas
inter
Ġfronte
Ġcos
elhor
ĠEpisode
Ġembaixo
Ġstatement
ĠNaz
Ġbatendo
ĠJuan
Ġcorpor
Ġdispute
Ġgentil
Ġmostrou
Ġask
retanto
ĠavÃ³
Ġprol
Ġquerendo
?âĢĿâĢľ
ega
Ġhoriz
Ġqualidade
idor
andy
don
Ġfria
Ġbound
ĠLt
ĠFore
ĠCfDed
ĠserÃ£o
Ġhighly
ione
Ġorgulho
ĠemoÃ§Ã£o
ĠAfDView
Ġdens
unal
Ġitalian
Ġoferecer
:âĢĵ
ĠDuke
unk
peonato
inze
Ġphilos
Ġsaindo
uer
Ġcomprom
ĠLucas
Ġfasc
ĠOfficial
ĠCE
ĠRegiment
Ġperna
ĠBad
Ġmoment
Ġheavy
Ġmassa
Ġteriam
Ġprovides
Ġtratar
Ġcontest
Ġlan
Ġdise
ĠPrize
At
ĠAgr
Ġtechnology
ĠStatesCategory
ĠApÃ³s
ĠRun
-'
Ġmaster
Ġdyn
ĠresponsÃ¡vel
Ġactual
Ġbehavior
Ġforms
ulado
ĠProject
edit
ĠAquele
Ġnearly
ĠajudÃ¡
ĠCasa
Ġconfl
hal
ĠTodo
Ġtrabalhando
ĠÃª
ĠSra
Ġdeliver
ĠSeason
ĠRoy
ĠAff
ename
xi
ĠNations
ĠmÃ¡s
Ġpesquisa
There
ĠRevolution
Ã¢mara
Ġwalk
ĠGi
ibility
Ġclube
ĠhÃ¡b
Ġvamp
ĠmatÃ©ria
ster
Ã¡stico
Ġselv
Ġdizem
Ġfab
ederation
\.
iosamente
cÃ§Ã£o
ĠMorgan
iles
ĠCharlie
Ġdistin
Ġobrigado
lou
ĠconteÃºdo
hem
ĠAntonio
ĠHugh
Ġpus
ĠNatural
Ġcitiz
ibilidade
Ġtiveram
Ġcargo
icional
Ġpresentes
rang
iti
Ġsabem
ĠMatthe
consin
ĠAvenue
Ã¡ticas
ĠTechnology
Ġfundamental
ĠLuke
hando
ĠAlbums
esses
therlands
Ġpermanecer
Ġdeslig
Ġlago
ĠsuperfÃŃcie
Gr
Ġexistem
:"
gÃ£o
Ġinimigo
ĠRA
Ġpositive
Ġdobr
Ġsan
Dec
manha
Ġargu
Ġcomputer
cean
Ġtenta
ĠAfinal
Ġsabemos
Ġprotection
Ġenferm
garian
anÃ§ando
Ġvidas
Ġelementos
ĠMrs
Ġchegado
ĠStudies
cra
Ġnegros
Ġdescer
Ġadquir
ĠMiguel
Ġrural
ĠSongs
Ġinfluence
Ġcorrente
pera
Ġcontrib
Ġtherefore
Ġrisada
Ġencol
ultural
ĠorganizaÃ§Ã£o
ĠPhiladelphia
Ġrecomm
ĠUserReport
Es
ĠNorte
Ġmover
ĠEntretanto
Ġnove
Ġappearances
ail
Ġimportava
roga
Ġcities
Ġacquired
Ġcolspan
Ġdraw
Ġoffered
Ġocorr
endente
Ġextraordin
ĠDor
ĠFund
Ġfolhas
Ġestrelas
standing
Ġdifficult
iblioteca
Ġsurface
Ġpoem
Ġfigure
peror
Ġequival
ĠHoje
Ġestudos
ĠconheÃ§o
ĠFamily
Ġseco
Ġcarried
Ġ~
ĠHans
Ġadvanced
Ġattacks
ĠBack
ĠJosh
ieta
ĠUsername
Ġsituation
Ġaim
Ġfav
Ġoverlaps
Ġpartido
Ġextended
Ġsociety
ycle
Ġarris
ĠPoland
Ġinvesti
Ġsched
Ġtarget
ĠgraÃ§as
Ġearned
ĠSurvey
Ġincapaz
MS
ĠpÃ¡ginas
Ġspir
Ġmainly
Ġpositions
light
Ġpatro
ĠKeep
Ġiam
Ġcurso
Ġelements
Ġseios
ĠAut
Ġmandou
Ġvoice
Ġfine
viamente
ĠTest
Ġadj
ĠEntertainment
essas
oa
Ġcura
ĠAma
ĠMinnesota
Ġpapai
Ġgarrafa
Ġsorri
ĠHit
ĠSupport
disse
Ġchegada
Ġsofrimento
Ġdisrup
Ġyoun
ĠformaÃ§Ã£o
di
Ġinferno
Ġsplit
iminal
ĠRick
Ġmerge
Ġarque
Ġpaciente
ĠIan
Con
Ġpoliticians
ĠSerb
ĠTu
elected
Ġedited
uldades
Ġterren
Ġresolves
zy
Ġdefesa
Ġatividade
Ġtecn
pr
Ġstories
Ġabsolutamente
regon
Ġconfer
body
Ġsupp
Ġdefend
Ġdemocra
ĠCole
acionais
Ġdetails
got
Ġbanda
ĠquilÃ´m
Ġregarding
Ġtela
Ġpude
Ġcertific
Ġingles
Ġapontou
adesh
Ġcruel
dem
ĠInternet
ĠObser
allenge
iday
Ġfellow
Ġalone
Ġalegre
Ġritmo
Ã³i
Ġsapatos
Ġdeclined
Don
ĠNetwork
Ġincluindo
ĠConserva
Ġonda
Ġvariety
Ġsuggested
Col
char
tavam
ĠSwedish
tese
usal
ĠpressÃ£o
Ġmechan
ĠhipÃ³
ĠpreÃ§o
Ġfeaturing
Ġquerem
ĠEmma
Ġsentence
celhas
ĠLive
Ġentra
Ġinteressante
Ġtopo
Ġteto
Ġcriteria
Ġmonte
Ġgeralmente
Ġperhaps
Ġincon
ĠCharlotte
Ġletter
Ġextre
Ġcoz
SP
Ġgetting
ĠSon
ifically
Ġconditions
Ġmolh
Ġsar
Ġbelo
Ã´nica
hares
ĠinfÃ¢ncia
Ġmembro
see
Ġdevemos
unha
ĠWisconsin
Ġusado
ĠJason
Ġdeep
ĠTurn
Ġsalvar
ĠaviÃ£o
Ġtema
hada
Ġfutebol
Ġpicture
inds
Ġprimeiras
ĠBeach
ĠAnderson
Ġpau
Ġmarca
ĠÃĵ
Ġale
Gen
Ġexcept
put
ĠRol
ĠAlan
Ġterras
thy
Ġnative
Ġmeninas
ĠLisboa
Ġcidades
ĠDown
ĠHy
Ġpermite
Ġreputa
Ġlouco
ĠalÃŃvio
Ġinse
tices
ĠMonitor
ĠJordan
atar
Ġterem
Char
ĠpÃ£o
ĠKir
Ġdiversos
Ġexped
Ġaparecer
ĠAlguÃ©m
Ġeg
ĠShort
Ġcouncil
uries
orde
ĠSebas
rÃ£o
overlap
ls
Ġrelacionamento
Ġdesculp
ĠFurther
Ġfootballer
Ġgets
Ġdesejava
Ġbarriga
Ġbeira
ĠErn
Ġintegra
Ġconced
bell
Ġimmediately
Ġec
Ġcomunidade
isti
ĠTurk
Ġpreocupado
ĠTig
Ġtroops
Ġpati
ĠDiego
ĠMuslim
utas
Ġexecutive
ĠSupreme
Ġsobrancelhas
Ġbridge
rence
Ġamiz
wick
Ġous
Ġquadro
uded
ĠPage
Ġtroca
ĠCommunity
itiva
Ġwor
ĠligaÃ§Ã£o
ĠMinistry
Ġexisting
Ã¡n
weight
ĠCatal
ountains
ĠAud
gers
ĠtÃŃnhamos
ĠRic
Ġving
Ġconserva
Ġrebel
verno
ĠMiller
Ġcommunities
Ġconsol
Ã¡ter
ulted
ĠSav
fully
Ġexpanded
ĠinfluÃªncia
Ġreconhecer
oln
!âĢĿ
;*
Ġcompon
Ġgostar
lative
Ġhonra
Ġstep
Ġastr
Ġmoving
Ġactivity
Ġnation
ĠKevin
ĠBoth
ĠNeg
ĠIndiana
Ġcir
ĠconfusÃ£o
Ġfique
edom
Ġautomatic
Ġperda
Ġgoes
Ġbaseball
vised
ĠOnt
ĠSamuel
Ġlooks
ients
Ġpronta
aca
Ġgritar
ĠFrances
uos
ĠsÃºb
gie
chestra
Ġelabor
Ġparish
ĠGrace
Ġleitura
ĠElectr
ĠEp
ĠanÃ¡lise
ĠVietnam
Ġlimit
ĠRound
ĠObrigada
Ġcomposed
ĠAlemanha
cting
Ur
ĠemoÃ§Ãµes
Ġsomb
Ġfechar
Ġdegra
Ġcarry
Ġfatos
Ġcode
Ġinvest
ĠalmoÃ§o
ĠcomeÃ§ando
ĠVideo
Ġmarriage
ĠTok
ĠMedic
vada
Ġsucceed
Ġcores
Ġresponsible
Ġcreating
idents
Ġgarg
Ġchem
Ġsubiu
Ġcouro
Ã¡culo
ĠRoger
mbol
Ġimpul
oring
Ġinsc
Ġtracks
uding
ilm
Ġtentava
anny
Ġprimarily
ĠCorporation
Ġmotivos
Ġdiscovered
ĠPad
Ġdemasiado
ĠDO
ĠSP
ibliography
ĠBridge
jected
ĠjustiÃ§a
istered
ĠNorw
Ġconfirmed
Ġtermo
Ġtipos
Ġimpress
Ġhouses
Ġcoming
fas
egas
//
ĠHotel
Ġalongside
uly
eses
ĠSpring
ĠrÃ¡pida
ordon
iner
Ġencoura
Ġpeix
inder
Ġnotes
ĠcarÃ¡ter
Ġpossui
Que
Ġshare
ided
Ġencer
Ġyouth
Ġstatistics
Ġsorrir
iografia
present
Ãªmio
Ġmusicians
Ġflu
ergy
ĠÃ³dio
ĠCz
ewh
Ġpresa
Ġowner
iamente
Ġdesapareceu
ĠEspero
Ġafirmou
ĠBaseball
We
yers
Ġrestaur
Ġfacilmente
Ġassistant
ĠIndones
ĠOregon
ĠMach
Ġgiving
Ġsto
oth
Ġconde
à¤
Ġdeclarou
viam
rizona
Ġball
Man
Ġforward
Ġwinner
ĠCrit
Ġissued
ilities
ĠPorto
Ġfontes
Ġliterature
Ġprecisamos
Sup
ĠJake
ĠMedical
Ġfaith
Ġcarre
Ġbic
Ġabaix
Ġexplica
Ġremove
Ġsecre
Ġagente
ĠFish
ĠProduc
turas
INE
Ġnet
mod
incoln
issa
Ġvos
Ġquickly
Ġdescription
ĠBishop
ĠAtlantic
ĠNon
ĠModern
icles
Ġgram
Ġdescobriu
mor
ĠFernando
mented
Ġescl
ĠVolume
Ġreag
Ġexpatriate
Ġrow
Ġenfrentar
ĠSegundo
Pe
Ġinicial
ĠBillboard
ĠserviÃ§os
pha
Te
Ġones
Ġsignificava
ĠrÃ¡dio
Ġminister
Ġregress
Ġquinze
Ġchegando
ĠMeus
Ġampl
Ġpin
Ġfaca
Ġnone
Ġagir
ĠRS
Ġamp
aturais
Ġembar
Ġinitia
Ġmarc
Ġimprov
Ġanalysis
Ġdiscurso
ophy
Ġtill
lectual
Ġadditions
Ġlinhas
Ġoil
?*
incesa
ĠVar
Ġprevent
Ġsoldiers
ĠRoute
Ġfinally
Ġlisting
Ġtransferred
Ġmeios
talion
laÃ§Ã£o
nÃ£o
Ġgenus
wen
Ġpenso
ĠBry
ĠmÃ¡g
ĠRub
restling
Ġentret
Ġligar
Ġchoque
Ġenrol
Ġresultados
Ġlap
ĠMam
Ġratio
Ġviaj
Ġplans
Ġclara
Ġregime
Ġderrub
Ġdivis
uno
ĠArgentina
Ġatividades
Ġincome
base
ĠWell
position
Ġcredit
ĠNetherlands
_{
ĠAndy
ively
Ġbecomes
Ġatras
Sc
Ġpsych
ĠNel
Ġexcess
ĠBrook
inary
ĠManuel
VD
ĠJog
Ġneutral
full
Ġwatch
ĠMaster
osco
Ġillustra
ĠrazÃµes
Ġtiro
?""
ĠKansas
Ġfriends
Ġgritos
Ġobservar
Ġaj
ingo
fit
Ġreco
bi
Ġbarra
Ġenjo
Ġadmir
ĠcomeÃ§ava
Ġtitles
ionally
Ġfotos
ĠMemorial
Ġgest
mine
Ġunless
IT
rice
ĠPas
ĠmÃ¡quina
ĠBri
ottom
Ġdefender
ĠAnother
ĠCastle
Ġsang
Jan
Ġsimple
ĠestaÃ§Ã£o
Ġpratic
Ġsurgiu
Ġlua
ĠPortal
Ġeastern
Ġinteligente
Ġrecursos
Ġdispon
ĠSciences
itzer
Ġcoleg
Ġvergonha
ĠObrigado
ĠOntario
Ġfase
Ã§am
Ġsecurity
ecta
Ãºnc
ĠPensei
Ġdrug
ÃŃlias
eme
wart
Ġhundred
ĠcÃ£o
Fe
ĠVa
ader
ĠKelly
ĠGh
Ġwinners
Ġantigos
Ġrindo
Ġancient
Ġalunos
ĠDeve
Ġtransforma
ĠMit
Ġinside
licos
ĠEram
ko
hist
Ġmanufact
Ġhy
Ġability
Ġgun
oud
Ġmestre
Ã§ava
Ġinex
gada
Ġheart
ĠPlace
aqu
Ġextremamente
Ġconceito
ĠKhan
ĠRow
Ġvandalism
ĠColorado
ĠSocorro
ighter
uros
Ġmanaged
ĠprÃ©
portun
],[
Ġconsists
Ġposterior
Ġabord
ĠEven
Ġbrasileiro
writer
enna
rm
May
ĠJu
Ġoperation
Ġafet
Ġsla
attle
fico
Ġtornando
Ġgraduated
ĠAnim
xy
Ġdali
Ġbloque
Ġdoctor
ĠDesign
Ġprovince
Ġterceira
pole
Ġ""
ĠPai
Ġadiante
Ġsombras
ĠGlo
Ġsinais
Ġdepartment
ĠquestÃµes
tagon
EC
ĠEvent
ĠPortanto
amilton
Ġcontrolar
ĠDom
ĠHoward
ĠBrasile
essee
Ġsofrer
ĠSilva
Ġcolocando
ĠSel
Ġfranziu
Ġsolu
Ġesclarec
Ġinvent
mentary
ĠMund
Ġpolicial
Ġtenham
ĠhorrÃŃvel
ĠTar
Ġator
Ġmi
Ġefforts
Ġincreasing
Ġperfeita
Ġcomando
Ġparticipated
ĠavÃ´
Ġmandar
Ġyards
Ġblue
Ġcuriosidade
ĠruÃŃdo
enth
Ġareia
Ġdissera
Ġobserva
Ġelectric
Ġrevista
mann
ĠPoint
ĠCosta
ĠDA
mers
ĠFinn
ĠWhit
alidade
ĠTai
annah
Ġatmos
ĠContudo
acks
ĠRu
Ġacreditava
Ġ;
Ġmilhares
ek
ĠGallery
ĠRei
enes
Ġproib
Ġrum
Ġvanta
Ġproducts
uÃŃda
Ġsculp
Ġparecem
Ġbrancos
ĠMand
Ġfifth
aks
orship
Ġdesliz
ĠFiquei
rove
Ġeffects
Ġasc
Ġcomecei
ĠLocal
Ġarrived
Ġnaqu
Ġenorm
Ġsuavemente
ĠAssocia
Ã©gio
Ed
ĠmÃŃnimo
Ġactions
Ġtomando
Ġvirar
Ġdedicated
Ġdiria
ĠgrÃ¡
Ġsignificado
ĠStone
Ġespero
Ġescura
ologist
Ġleaders
Ġlives
Ġtypes
lligence
Ġly
ĠMagazine
Ġfollows
Ã©tr
ĠPeters
ĠEmily
Ġdesemp
ĠMarie
Ġthous
Ġconcerns
quÃª
ĠFab
ĠPolitical
Ġabre
Ġimprove
ĠMissouri
ropolitan
ĠArizona
Ġigualmente
Ġarreg
Ġcriada
ulture
Ġfully
reiro
Ġmole
ingham
Ġdirection
Ġpercebi
Ġprato
ĠirÃ¡
ĠArticle
topher
urada
rante
Ġcriatura
Ġacostum
bot
Please
ĠEU
Ġgelo
ĠDouglas
aded
Ġbrand
LO
Ġeletr
Ġanalis
Ġhope
ĠChile
ĠAfC
anim
Ġaborre
Ġimpact
oo
Ġsede
ĠcalÃ§as
Ġinoc
Ġsaco
Ġur
Ġfelt
ĠCel
ĠMichel
Ġmeninos
ey
Ġcrimes
ĠÃºltimas
Ġstrateg
itÃ¡rio
ĠUN
Ġaceler
itei
nal
Ġmanifesta
ĠLigaÃ§Ãµes
Ġmesmas
ĠDick
Ġpolicies
ĠJorge
Ġlinked
},
Par
Ġencontrei
Ġapresentar
Ġhosted
itivamente
ĠPos
Ġacidente
Ġofficially
idental
ieval
ĠCaptain
Ġrespirar
inity
Ġseguintes
pace
Ġstars
Ġprominent
ĠcomunicaÃ§Ã£o
ĠFui
tie
Ġwidely
ĠdaÃŃ
ĠSantos
Ġsummary
Ġdesceu
ĠfÃŃsico
ĠAre
ĠalcanÃ§
ĠfÃ´
Ġhero
BN
Ġaula
ĠStory
ises
ĠAk
ĠBi
ĠOlhou
Ġmanteve
Ġscholars
Ġestic
Ġlevels
ĠCall
Ġrival
Ġespanh
ivas
Ġinterrompeu
ĠpÃ¢nico
;"|
alho
Ġvoltando
ĠalcanÃ§ar
lations
Ġrepetiu
ĠLaur
Ġlembrava
ĠÃ¡lbum
ĠWikip
Ġchannel
Ġadvogado
ĠMaur
Ġdesag
ĠLincoln
Ġbebida
iller
Ġscores
ulf
Ġcompleta
Ġcompla
ricts
ĠcircunstÃ¢ncias
Ġjoin
ĠDave
ĠpÃºblica
Ġhistoric
Ġult
rane
Ġmald
ĠvitÃ³ria
ĠDesc
ĠConhe
ĠPit
ĠchapÃ©u
Ġmagia
ĠmÃºsculos
Ġdeleg
ĠRegion
Ġworkers
Ġgast
Ġenfor
Ġreino
Ġtrial
ĠquilÃ´metros
iograph
Ġprog
Ġsilver
ĠindivÃŃduo
inet
Ġcostumava
apore
ĠfÃ¡
ĠContinu
Ġsomewh
ĠincrÃŃvel
ĠMargaret
Ã³veis
Ġslight
Ġcerveja
Ġremain
={{
IC
Ġempurrou
ĠcaÃŃ
ĠHart
pected
Ġarchitecture
Ġentretanto
Ġrealizar
ĠKat
ĠSign
ĠHere
Ġ'.
ĠMonte
ĠDesculpe
Ãªnd
agu
Ġsaia
Ġego
Ġvalid
ĠAccessed
uiÃ§Ã£o
ĠMountain
ams
tividade
Ġtouch
ĠsoluÃ§Ã£o
Ġcabo
pear
ĠJÃº
ulto
ĠestarÃ¡
Ġcidad
anhe
Ġproc
ĠameaÃ§a
Ġagreed
Ġtratamento
Ġtrabalhos
ĠcalÃ§a
ĠSar
Ġrevealed
Ġexpected
ĠfenÃ´m
Ġexa
Ġlocais
ĠDream
Ġobjetos
organ
ĠestratÃ©
Ġeffort
ĠreligiÃ£o
Ġjogos
Ġcrew
ality
Ġproduct
Ġcritical
Ġhumil
ĠWinter
,-
Ġater
tiÃ§Ã£o
Ġcarros
ĠAD
Ġdark
ĠtensÃ£o
Ġarregal
Ġaceit
ĠMexican
Ġweap
fullurl
ĠAbd
Ġconstructed
owa
Ġbrit
endida
Ġquerido
Ġmac
Url
Urlenc
Urlencode
[{{
ĠVinc
Ġadvoc
Ġconsiderado
ape
ĠbalcÃ£o
Ġrugby
Ġmund
Ġagreement
Ġlu
Ġsucess
Ġhop
ĠÃŃnd
ĠJa
Ġpattern
ĠGordon
Ġice
licas
ĠTennessee
Ġnearby
ĠTownship
Ġresponsabilidade
aven
Ã§ados
ĠnÃ©
Ġmixed
ĠStand
gos
Ġspecifically
Ġple
Ġbaixinho
Ġescuros
Ã³rica
ĠDeixe
Ġautoridade
Ġles
izing
zen
Ġcompared
ĠPrimeiro
Ġguidelines
Ġrode
arn
Ġunknown
Ġpega
olÃ³gico
Ġfeed
Ġescrita
iosas
teira
Ġrub
FD
ĠFellow
ĠproteÃ§Ã£o
Ġbeyond
Ġamericano
Ġresidents
ĠLoc
Ġpreocupar
Ġtransc
All
Ġandando
quarters
Ġproduce
ĠMelbourne
ĠHamp
non
ĠLow
Ġscientific
Ġlob
,'
estab
Ġachei
ĠForeign
Ġpaid
Ġconducted
Ġlimites
ĠKo
Ġtitled
ĠAny
Ġamizade
ĠCu
ÃŃritos
Ġprate
ĠDonald
pupp
ĠEdu
ĠpapÃ©is
Ġeco
Ġsmaller
Ġjustific
ĠSweden
fan
Ġaparentemente
ilÃŃb
Ġvermelha
ĠSac
ĠEP
!!
eman
Ġafund
Ġcens
ĠPalest
ĠAv
ĠestÃºp
ĠHistorical
Ġtreatment
ĠMun
Ġcampos
Ġpolitics
Ġnotou
Ġentirely
Ġhall
lates
ĠWorks
owers
Ġslow
Ġinternet
ĠFollowing
tidas
Ġhear
Ġtemporada
Ġmeant
Ġcolumn
Ġquart
uting
ĠexplicaÃ§Ã£o
ĠEspÃŃrito
Ġathle
Ġmunicipality
Ġdiscutir
ĠAllen
Ġneighbor
Total
ĠBah
ĠRugby
ĠHamilton
elling
lego
ĠJohnny
Ph
Ġexceto
Ġcapa
Ġsupor
ĠConnec
Ġscene
Ġpreparar
Ġtopics
Ġadministration
Ġmad
Ġnuclear
Ġartigos
ĠIndependent
Ġconhecida
Ġdance
Ġestivessem
Ġjusto
ĠHarvard
osed
ĠKentucky
Ġgreen
Ġcanal
ĠBos
ĠDois
Ġatu
ĠWed
asty
Ġpagename
aces
Ġuniverso
ĠinteligÃªncia
Ġimpedir
enz
Ġcontact
berts
Ġsport
venÃ§Ã£o
Ġterreno
ĠExec
dol
ĠDiga
Ġcertas
ĠOriginal
ĠAz
ĠLucy
Ġbrasileira
ĠCham
ĠGuy
ĠsÃ©culos
Acc
Ġnobre
cesse
ĠRepÃºblica
Ġadmitir
Ġprision
Ġfiction
Ġefic
ĠJews
Support
Ġphysical
ĠRegional
ĠNossa
Ġgargalh
ĠpeÃ§as
Ġtraffic
ĠUkraine
Ġreplic
Ã³lica
Ġjuiz
ĠÃį
Ġtratava
Ġcontrad
ashion
ocese
Ġaparece
Ġlindo
taining
Ġbola
Ġfan
ĠReport
Ġplanned
ografia
ĠIsa
rett
Ġocorreu
ĠNY
Ġpretty
Ġresponde
Ġlibert
ĠBilly
Ãªnio
Ġponte
ĠLabor
nie
ĠÃ¡guas
bed
Ġpergunto
ĠWall
aling
Ã³digo
Ġopportun
Ġvisitar
Ġmethod
ĠPartido
Ġasseg
Ġherd
ĠAndrÃ©
ĠNob
ĠLemb
Ġadorm
Ġaproximar
ĠEvery
ĠfamÃŃlias
struction
inger
ÃŃstica
ĠKenn
Ġinconsci
Ġfico
Ġshop
ĠKa
Ġondas
Ġmark
Ġpist
ureau
ĠpÃ¡tio
Ġsolic
olÃ³gica
Ġacting
ĠausÃªncia
etes
Ġassigned
ĠDespite
yth
aixas
Ġseguindo
ĠWars
Ġterritory
LA
vador
Ġreports
Ġbair
ĠCareer
Ġlargely
ĠdÃª
Ġroles
ĠMatthew
Ġvalores
ĠTodas
Ġnega
Ġpublication
ĠDigital
Ġvocal
Ġstream
Ġcontudo
ĠQuase
Ġirre
nis
Ġprogramming
ĠcÃŃrculo
Tra
Ġsufficient
ĠDisc
Ġtivera
Ġvozes
Ġamante
lers
urity
como
Ġentregou
Ġentran
Ġcolegas
Ġbrin
ĠRachel
ault
ĠJoh
Ġfast
Ã³dio
aneamente
Ġcertainly
ĠVI
Ġpista
Ġdesab
iami
ĠMaryland
BI
ĠLast
Ġgole
uito
Ġstreet
Ġdono
ĠMot
Ġtwice
Ġprata
Ġrecip
Ġrefere
Ġproposta
You
Ġhaveria
ippi
state
Ġpeace
ounded
Ġpole
Ġrespondi
ĠDark
ĠquÃ£o
Ġengineer
erdo
Ġcostume
pass
Ġjornais
gando
ĠmaÃ§
Ġexpand
Ġmago
Ġlider
ĠTri
ĠSS
ĠChristmas
ĠcentÃŃm
arda
itled
ĠSound
Ġflight
ĠMelhor
aver
Ġsenhorita
stone
lash
Ġouvindo
Ġleaves
Ġdesespero
ĠFem
oder
ĠOuvi
Ġconcerning
ĠEarl
VID
ilÃŃbrio
ĠvÃŃtima
Ġcustom
ĠimÃ³vel
Ġplaneta
ĠHollywood
Ġviews
ĠcrÃŃtica
ĠdÃºvidas
ĠThird
ĠrecÃ©m
Ġmessage
Ġpossess
estar
Ġpath
Ġdeuses
Ġpossibly
ĠRepresentatives
Ġfestival
pan
frac
Ġrestaurante
ĠGreg
tically
Ġdestroyed
ĠBoy
eck
Image
ĠColl
Ġupper
ĠÃ³culos
Ġquarenta
ĠForest
Ġcomputador
ĠGri
Ġgrew
oster
Ġefeitos
Ġimplement
ĠAch
iding
mouth
ĠDaily
ĠClay
lando
Ġnegra
Ġappe
Ġexternal
Ġpuxando
Ġchampion
Ġdamage
frica
ĠprovÃ¡vel
Ġolhei
Ġescor
ĠManchester
ĠLuÃŃs
ĠPhill
ambigu
Ġmister
cow
eries
Ġsole
ĠSimp
rez
.(
acia
Ġaldeia
Will
Ġordered
Ġgrowth
rated
ĠBurn
ĠpÃ¡ss
Ġcerim
ĠJimmy
Ġlament
Ġhumanidade
Ġcommonly
Ġexpecta
ĠJenn
Ġfundos
apt
Ġdisfar
ete
lahoma
Ġhabitantes
egian
Ġvas
Did
ĠBull
elcome
iaÃ§Ã£o
Ġparecendo
taÃ§Ãµes
Ġcounter
])
ĠDur
rics
ĠRosa
Ġantig
Ġcapazes
Ġarts
ĠJerusal
ĠTel
bu
ĠHouston
erry
Ġteatro
ĠGrant
ĠIraq
ĠfÃ´lego
Ġrang
Ġunsigned
Ġouvia
Ġwish
ĠsatisfaÃ§Ã£o
Ġnasceu
Ġphotograph
ĠmÃ©dicos
Ġdevol
Ġconsp
leta
Ġbranch
ĠLas
iki
Ġstone
avier
Ġoccurred
Ġcoordin
ĠClark
Ġacaba
Ġcompeted
Ġfilosofia
Other
ĠSA
Ġinsistiu
ĠSingapore
tings
ĠCensus
Ġscient
inhar
ĠGlobal
Ġentendo
Ġresign
Ġpassada
taram
Ġpresence
Ġconcre
Ġsabiam
ĠTurkey
Op
Ġlin
Ġaspectos
Ġfloor
Ġtypically
Ġnominations
Ġidentified
Ġcompanheiros
Ġdissol
ĠMalays
-.
Ã¢nica
Ġpiece
Ġdera
aters
Ġensino
Ġparliament
Ġempresas
ĠLike
Ġweight
ĠLyn
ĠAngel
Ġnotas
Pa
Ġluc
Ġauth
tillery
Ġpersonagem
ĠBart
ĠEngineering
ĠfreqÃ¼
Ġtecido
Ġstore
Ġbul
ĠPhilippines
Ġassess
Ġespant
Ġstandards
Ġsamp
?!
ĠLiberal
Ġindifer
yr
enger
Ġvive
Ġmerged
uÃ¡rio
Ġcoinc
ocks
ĠIvan
Ġaccessed
Ġfuma
ĠCarter
Como
ĠlÃ¡bio
Ġproviding
Ġarres
Ġcharge
Ġrumo
cidos
Ġorden
Ġhouseholds
ĠPhys
omon
part
Ġlige
Ġprecip
tados
Ġcen
ĠInformation
ĠAge
ĠHan
ĠArk
ĠSele
tify
ĠBoa
Ġliteratura
Ġurban
ĠâĢĵ,
Ġpeak
bel
Ġinser
IV
Ġrapazes
Ġcertos
Ġcontente
Ġtechnical
oz
Ġwithdra
issippi
roll
ĠChristopher
Ġcompens
orto
ĠAC
ĠexperiÃªncias
ĠIowa
Ġacontecimentos
Ġcapacity
ĠTan
Ġcombat
Ġajudou
ĠWolf
Ġlibrary
ĠIsraeli
Ġrecognized
cor
ĠEqu
ĠAbra
xual
Ġinterested
Ã©ssemos
Ġdeclared
Ġpura
ĠCopa
ĠOd
Ġthr
Ġdeixei
Ġqueix
Ġencontraram
ĠcompreensÃ£o
page
Ġaffilia
ĠData
Ġpulso
Ġdocumentary
udeus
Ġregu
incial
Ġrepeated
Ġcampus
Ġassin
ricke
Ġrapariga
Ġdivided
ĠJonathan
Ġorganized
Ġsentidos
Ġinstrument
ĠNelson
Ġdisseram
sum
ĠHarris
ĠProte
Ġordenou
Ġcerem
ĠNar
pool
Ġvib
Ġidentidade
Ġacredita
Ġversions
Ġpedindo
Ġestal
Ġcitizens
Ġparada
Ġcandidates
entity
Ent
Ġbud
Ġaval
Ġdificuldades
Ġreta
ME
bama
Ġcancel
ĠAmaz
Ġmathema
Co
ĠHur
Ġotherwise
Ġ>
Ġtornado
Ġfilmes
Ġeasily
emor
Ġrecuperar
Ġolhada
ĠencontrÃ¡
ĠAquela
ĠPodemos
Ġderam
bly
allas
Ġconsiderar
Ġmiles
Ġspeak
entially
ĠFriend
Ġprove
Ġmiser
Ġcompanheiro
Ġloucura
Ġfoot
Ãºl
ĠBudd
Ġgab
Ġdepos
Ãĥ
ancing
ĠterritÃ³rio
ĠNaval
Ġarrum
water
El
Ġmeets
Ġduv
eces
ĠAS
timento
Ġmayor
Ãºr
Ġconfiar
La
Ġambas
Ġfigures
Ġcapt
Ġelog
ĠShip
ĠSingles
Ġficam
vival
Ġconference
Ġprovas
Ġassoc
ĠcomentÃ¡rio
Ġcigarro
Ġserves
ÃŃsse
Ã³m
Ġsacudiu
GBT
ĠSource
Ġoperating
fect
Ġprejud
Ġdistribution
Ġsobrev
former
Ġgross
Ġentregar
ĠBall
ĠMember
tified
Ġgained
Ġlongos
Ġpesado
Ġrevert
ictionary
Ġfounder
ceis
inete
ĠinÃº
Ġmarked
ĠSophie
brar
ĠPublishing
Ġassessed
Ġsistem
ĠMoscow
ĠHeart
Ġessencial
Ġcombined
Ġdil
Ġburaco
yard
ĠMundial
ecida
ĠpÃ³
Ġsolid
Ġconsciente
uas
Ġpermaneceu
ĠedifÃŃcio
ĠcanÃ§Ã£o
orte
Ã©rios
Ġnuvens
utu
roso
ĠMeg
Ġadiv
Ġassassino
ĠMoore
ĠHighway
ĠSky
Ġconseguido
Ela
jado
issem
ĠAlgumas
Ġdona
jamin
Ġconter
Ind
Ġsections
Ġrug
Ġunf
Ġinimigos
ĠpalÃ¡cio
Ġstrength
Ġdefeat
vado
ĠReino
ĠRf
ĠRank
Ġgraph
ĠManagement
Ġcontemporary
leo
ĠAth
Ġquadris
Ġcommittee
nib
Ġcansado
Ġblog
ĠCultural
vÃ£o
uncia
Ġcrise
Ġfaculdade
Ġesperou
Can
ĠrÃ©
ĠNP
ĠHunter
venth
ÃŃdio
Ġabrindo
ĠlembranÃ§a
Ġmountain
ĠStock
Ġprev
Ġfio
Ġestup
Ġfomos
ĠChart
Ġwikipedia
intos
Ġdestac
Ġunique
Ġexamples
ĠOnly
ĠResult
Pr
Ġsatisfeito
Ġasser
Ġolhares
Ã¢nd
Ġmans
izados
ĠBruce
ĠpolÃŃticas
Ġgrad
Ġcurto
ĠportÃ£o
ijo
ĠTed
Ġdram
ĠSri
Ġpainting
Ġobject
isi
Ġdeliber
Ġfat
Ġcareta
ĠRoberts
bat
ĠCommons
ĠThen
ÃŃtulos
Ġdeus
ĠPlayer
ĠPC
Ġpartner
ĠStu
ĠTemple
ĠItÃ¡lia
Ġpropriet
ĠOklahoma
style
ĠDri
Ġpreocupada
Ġligeiramente
Ġassuntos
Ġmodels
ĠSix
Ġreceive
rene
Ã¤
Ġguardas
ĠHand
istÃ©rio
Ġresmun
ĠalemÃ£o
ĠMiami
Ġtree
ceding
Ġduque
Ġdoub
Ġpoet
ĠViv
Ġreprod
ĠNorwegian
ĠclÃ¡ss
Ġvivia
resse
uem
Ãį
ĠEag
etroit
Ġcaptured
sg
ĠArea
anÃ§o
from
ĠprÃ³ximos
ĠbÃ¡s
bes
Ġdecidir
Ġequipment
ĠCulture
Ġleadership
ĠJar
ĠSobre
Ġtempestade
Ġteacher
istia
ĠSusan
ĠBaron
Ġdisease
ĠThank
ĠAffairs
obres
urer
Ġescrev
Ġaccept
ĠDC
Or
Ġearth
Ġpassing
Ġperguntando
Ġinesper
ĠBureau
ench
fficial
Ġdisposto
Ġsit
iny
Ġqueda
Ġpare
Ġpressure
ician
Ġengineering
Ġapplied
ĠHelen
Ġcontinues
Ġfi
Ġcreio
Ġpenal
ĠÃ¡reas
Ġobservava
ugo
Ġmontanhas
ĠAustria
Ġinac
Ġsquad
Ġenver
Ġexecut
ĠBeng
andom
zas
hammad
ĠJose
Ġcoal
Ġliga
ĠFederation
abor
incl
osen
Ġgarantir
Ġpassage
Ġprovar
ĠSquare
Ġbusc
Ġprecisam
ĠSunday
loyd
ĠSpec
odies
ĠdanÃ§ar
onso
Ġalternative
Ġlevanta
Ġtowns
ĠOliver
usted
ĠPierre
Club
Ġeverything
Ġeveryone
Ġoficiais
Ġadopted
ĠLtd
ĠChildren
pit
ighth
Ġroyal
unicÃŃp
igen
ĠCase
quinho
ĠdomÃŃnio
ĠArena
ĠChannel
Ġsettlement
Ġspot
alto
ĠMississippi
ĠTokyo
Ġspread
ĠportuguÃªs
Ġseats
read
ĠÃ´
Ġobrigada
Ġabertura
ĠSquadron
Ġheard
Dav
Ġhits
ĠLeo
Ã©e
udos
Ġnovels
ĠTob
Ġadvertis
ctoral
Ġacerca
Ġsales
Ġajo
ĠQualquer
Ġopposed
ĠFinalmente
Ġdiscussed
Ġadministrative
ĠRelig
ĠLangu
Ãªnis
Ġinvis
iques
Ġfolha
Ġcaras
Ġalcance
Ġraces
eiÃ§Ãµes
Ġtranspar
Ġperformances
Ġespet
Ġtras
ĠSilver
Ġdoze
Ġacom
Ġresulted
ĠfumaÃ§a
Ġenfim
ĠpedaÃ§os
iden
Ġdiabos
ghan
Ġconselho
rik
erself
Ġliteral
entin
ĠSean
unch
eller
Ġpurchased
ĠNum
ĠPR
Ġcomandante
Ġmargem
ĠBrazilian
Ġpromotion
ĠWhy
Ġtomado
ĠCape
uled
Ġcaute
Ġeconomia
Ġaccura
assador
ĠRef
Ġgovernor
ĠEve
Ġbiblioteca
Temp
Ġinha
ĠdanÃ§a
Ġways
Ġfabric
Ġinteiramente
Ġexpansion
Ġbeat
Ġclo
ĠSenior
ĠmudanÃ§as
Ġsobr
enses
Ġestate
iley
lad
Ġincident
Ġmicro
Cap
Ġmergul
Ġchamas
Ġprotected
ĠHitler
iest
ĠsaÃŃram
Ã¼r
Ġpropag
ĠCapÃŃtulo
Ġphoto
ĠDisney
Ġperspectiva
Ġinterrog
ĠDol
Ġfails
Ġprodutos
Ġmanusc
wealth
Ġmanga
ĠBernard
ango
Ġimpl
Ġdormindo
ĠMarine
Ġcomposer
Ġtub
Ġgato
Ġossos
Ġcheguei
Ġgranted
Ġant
Ġinsist
ĠHoly
ĠarmÃ¡rio
Ġvolunt
ĠMarcus
Ġsaiba
Ġjoint
Ġattend
Ġdirigir
Ġposted
Ġcriminal
ĠAlabama
ĠAbr
Ġrespostas
ĠGaz
Ġlevantando
Ġviram
Ġofereceu
Ġseda
Ġqueriam
Ġwild
Ġporra
Ġwasn
Ġdegraus
lines
Ġplants
ĠInfantry
ĠFeature
Ġestimated
rier
Ġestrang
Ġunidade
Ġharmon
Ġfaculty
Ġunderstanding
ĠpolÃŃticos
Ġhands
Ġpasses
ĠFicou
ĠabraÃ§o
Aug
Ġimprensa
ĠCerto
Ġencyclopedia
Ġvenc
ĠcapÃŃtulo
ĠGet
Ġmistura
Ġmantinha
Ġdeterminado
General
fos
tera
Ġprincesa
Ġstrugg
ĠFu
ĠGoals
rita
Ġmeasure
Ġvazia
Ġinev
Ġmotorista
Ġlaws
ĠCooper
Ġimediato
ĠAlgo
ĠNote
ĠImperial
ĠPA
Ġfelizes
ĠInte
ĠBei
Ġblood
Ġleite
Ġresulting
Ġdistance
Ġdeveriam
ĠWalker
ĠToda
ĠÃ³bvio
ĠÃºm
outheast
Ġclientes
Ġficasse
Ġpudessem
Ã³ric
asco
Ġjudeus
zero
Ġdrive
Ġspeedy
Ġinstruc
ĠGreece
itely
Ġlaunch
Ġexists
Ġabri
ĠQueensland
alt
ĠAL
ĠMarco
Ġtira
EA
ĠLabour
amba
Ġrein
ĠNorm
Ġasas
Ġcentenas
igrants
ĠWol
ĠFilmes
kee
ĠMA
Ġopposition
Ġcombate
ĠAcab
ĠBerg
Ġcere
Ġdiscre
endimento
Ġverdes
Ġcaminhar
ĠKnow
Ġesfre
Ġretire
ituais
ĠGost
arei
Ġpobres
ĠNicholas
Ġconfir
Ġcarru
Ġmill
Ġmontanha
ĠFlora
Ġbotas
Ġina
ĠTrabal
Ġfri
Ġarms
Ġattempts
Ġcars
Ġjournalist
Ġiron
ĠgÃªnero
idi
Ġinstitutions
Ġgreater
Ġdenomin
Ġfechada
ĠVice
Ġcontrato
Ġstraight
Ġnormalmente
Ġspeech
Ġjudge
ĠDir
ĠMundo
ĠNathan
ĠHonor
ĠNorway
Ġbasic
Ġcuidadosamente
ĠFiz
point
Ġofficials
Ġwhitelist
ĠCommand
ĠHung
Ġfacilities
Ġweak
yment
esas
ĠLawrence
ĠChampions
Ġexactly
Ġturb
atures
ĠIv
Ġsuor
Ġinteresses
Ġfixed
Ġcansada
ĠmÃ©dia
ecem
ĠRace
Ġmista
CAA
icks
tah
Ġescritor
Ġdan
National
ĠSenhora
ecimento
Ġcheios
Ġmaxim
aka
Ġnewly
Ġrecol
ĠimaginaÃ§Ã£o
Ġadvis
Ġpersonalidade
aging
Ġstay
Ġsubstanti
Ġcalm
ĠExper
ĠPela
Ġcorrup
Ġcrescer
gueira
Nov
ĠIb
Ġ?
ĠBuilding
ĠFutebol
Ġallows
Ġimplic
Ġdefined
ĠMi
Ġpressa
itudes
Ġofeg
UE
ĠUsers
ĠGraham
ĠChair
Ġlivrar
ĠinvestigaÃ§Ã£o
Fo
Ġmatou
ĠWy
Ġestudar
Ġdomainred
Ġdomainredlist
ĠMonitorlist
ĠpaciÃªncia
ĠPrix
Ġcliente
ĠAgain
atriz
ĠRussell
Ġfur
Ġrisk
Ġ@
If
ĠGregor
ĠpadrÃ£o
Ġdesculpas
Ġdomestic
Ġreduced
ĠArmen
Ġfeitas
ĠSet
Ġchamava
Ġproposal
Ġdesagrad
Ġtoler
Ġfaces
trÃ¡s
ĠFut
ĠAuthor
nibus
ĠPortuguese
Ã¢nia
ribution
Ġpront
ĠSingh
Bo
Ġconstruir
Ġapag
Ġcumpriment
Ġmig
Ġhockey
Ġclima
Ġunable
ĠLisa
ĠEspanha
Ġabsur
ĠOlha
Ġdeseja
adrid
ucion
Ġimportance
Ġvess
Ġcoloca
ĠBlu
Personal
ogue
ticip
andro
erk
Ġsacerdo
ports
Ġsuffered
Ġcore
ĠYes
ĠCatherine
ĠComics
ĠOnline
Ġperigoso
ĠMontreal
ination
iler
Ġdrog
mail
Ġcancer
ĠTurkish
ĠHu
ÃĥO
ĠprincÃŃpios
ĠMoon
ĠcaracterÃŃsticas
Ġchairman
Ã©n
ĠEgypt
Ġshowed
Ġaprop
Ġimpulso
Ġmoveu
Ġrot
ĠtradiÃ§Ã£o
Ġencarou
Ġdesculpa
Ġlouca
Ġbrux
Ġconnection
Ġdesgra
rÃŃveis
Ġlogs
istics
Ġconnected
Ġeducated
Ġconosco
Arch
Ġsalto
ĠMik
oking
Ġdaria
Ġaulas
ticut
Ġcantar
Ġacamp
ĠEi
idores
Ġbrilhantes
ĠEug
Ġnervoso
izes
Ġcaro
quenta
ĠMah
Ġshowing
ĠWhe
ĠAbout
Ġwall
Ġuniversal
Ġoffers
itÃ¡ria
dam
Ġsuced
Ġjeans
Ġpreta
Ġdaquelas
Ġindica
fl
antly
Ġanunciou
ĠGeorg
ĠAustin
ĠequilÃŃbrio
Ġattempted
Ġbaixou
Ġpreocupe
Ġdates
Ġhousing
Ã¡ticos
ĠProvavelmente
ĠKit
tier
uÃŃdos
ĠCaval
ĠlÃ³gica
ĠDance
Ġvieram
ĠfÃºria
jan
timos
Ġapreci
Ġpensado
Ã¢nea
ĠMcG
ĠKennedy
ĠDetroit
Ġcusto
Ġpoltr
Ġbow
Ġcoto
Ġmanip
Ġsockpupp
ĠBenjamin
ĠDean
Ġindign
uzir
Ġveter
Ġimplor
Ġligou
eron
Ġfell
Ġassistir
ĠForces
Ġdifference
Ġrelatively
ĠCampeonato
Ġmentira
ĠÃģfrica
Ġvege
Ġsector
elled
antil
Ġpastor
ĠSecurity
Ġgrau
Ġboy
ĠRoberto
Ġapresenta
Ġwing
Ġconfr
ĠTaiwan
ĠSant
ĠActress
ef
Ġbegins
Ġroll
Ġrespectively
ĠAT
ĠOak
ĠCommonwealth
%/
Ġnaturalmente
iland
Ġmilitares
Ġsurpris
iation
Ġmaterials
Ġmaneiras
Ġsoldado
Ma
Ġprocurou
ĠresistÃªncia
Ġsincer
Ġpack
ĠNature
Ġmaravilhoso
ĠZh
Ġpassei
Ġinverno
Ġstub
ĠAtl
ĠFace
Ġ";
ĠUkrainian
Ġsides
Ġrepresenta
Ġexistence
Ġnave
Ġcorda
ĠCompan
Ġresources
ĠConc
DA
ĠÃºtil
ĠconclusÃ£o
protected
ĠFormer
ĠirmÃ£s
Ġsquare
War
Ġsmo
ĠSentia
ĠFM
Ġclimate
stream
room
Ġsupporting
Ġroof
fort
Ġadminist
eness
Ġcachorro
Ãºst
ĠsaÃŃdo
Ġsurrounding
Ġsurpreso
ĠLib
ĠreferÃªncia
Ġallowing
Ġcritics
ĠOur
ĠKh
Ġconvic
Ġartista
Ġnecessidades
rador
ĠClara
Ġpersonagens
Ġproperties
elhado
igura
Ġga
Ġrico
Ġassume
precia
Ġdescend
Ġentende
ĠDallas
Ġexcelente
Ġbai
Ġandava
ĠGos
Ġconsta
Ġcovers
ĠHeritage
Ġexistir
Ġdocumentos
Ġjustamente
onian
ĠRO
Ġtransformar
Ġestivera
ĠAM
RS
Best
Ġdecide
ĠFez
Ġvestir
using
chell
itzerland
ĠYouth
tam
curso
To
Ġauthority
ĠâĢĿ
Ġpremier
works
going
Ġsra
Ġnotic
Ġnervosa
Ġescal
Ġnarrow
xo
leep
ĠCzech
}{
Ġcinza
Ġsenso
kers
ĠMort
ĠSuz
Ġvigor
Ġcras
olate
chi
Ġgrade
hops
bis
Ġzang
ĠZo
pic
ompson
Ġtaught
Ġparce
ĠnÃºmeros
Ġautomatically
Ġlosing
ĠcaÃ§
ĠÎ
hedral
zia
ĠsituaÃ§Ãµes
Ġemit
ĠHenrique
feita
Ġapontando
Ġrespect
Ġsimult
anie
Ġproporcion
ĠlenÃ§
Ġcolonial
ĠImpÃ©rio
Ġelegante
Ġesquecido
ses
ĠCount
Ġvide
Ġacomod
Ġded
ĠBeth
DE
Ġevid
Ġsobreviver
ĠTit
PS
ĠCategoria
istent
Ġrecomend
Ġlateral
Ġdiabo
onomy
ĠEsses
Ġ%
ĠpossuÃŃa
Ġsir
esis
Ġburied
Ġarbit
ĠNative
Ġbrancas
Ġconvinc
ĠClin
Ġinspired
Ġcommander
Ġslightly
ĠToday
Ġprint
Ġrespirou
ĠLin
Ġclassical
Ġarrested
Ġnascimento
Ġpartiu
ĠServices
tivity
Ġraio
Ġproceed
Ġmostrando
ĠAntÃ´nio
Ġalleged
olk
Ã¡cia
Ġjulgamento
ĠindivÃŃduos
Ġimproved
Ġconvencer
Ġinclusion
ĠxÃŃc
Ġwins
Ġresolution
Ġperigos
Ġranked
ymph
teve
ĠparticipaÃ§Ã£o
ĠNico
adi
ĠbÃª
ĠConnecticut
orno
Ġlocomo
Ġcondition
Ġyourself
weet
ĠTrad
ĠDal
Ġdepar
Ġpromessa
Ġfemales
Ġgritando
dis
ĠfrequÃªncia
Ġsupposed
ĠLuis
Ġpuder
ĠPeg
Ġnervos
Ġration
also
ĠKarl
Ġtrabalhava
Ġpronunci
ĠEmperor
cular
ulada
Ġdescobri
ĠGuide
Ġinternacional
Ġacenou
Ġanivers
Ġpouca
Ġremember
Ġproto
ĠPoder
Ġchegava
ĠsaÃŃa
ĠSever
inburgh
ĠBir
ĠPeru
urance
Ġbottom
ĠSegunda
Ġcaindo
ĠIslamic
Ġlooked
Ġconfund
Ġincomp
uerto
Ġinher
finals
Ġfrequently
ryst
ĠAmericans
Ġpresidential
Ġsuportar
ĠBird
Ġfalse
wers
ĠMusical
Ġcruc
urday
Ġsurge
ereÃ§o
ĠDead
Ġpitch
Ġregions
Ġpasseio
ĠEduardo
Ġtells
history
Ġswim
TU
ĠGarden
erge
Ġdivertido
ĠMaj
ĠMadrid
inth
type
ĠPS
Ġrapid
Ġapproved
heim
pp
Ġobtained
Ġlargo
Ġfighting
Ġfazenda
Ġauthorities
Ġperante
Ã´nico
orne
Ġbrincando
leased
adoras
ĠelÃ©tr
ĠDez
ĠAnc
Ġfortal
ĠÃ©s
ĠMason
Ġradical
ĠDoctor
Ġcurva
Ã¡ver
icians
Ġinstantes
tles
ĠaÃ§o
ĠEuro
ĠMorris
Ġtranslation
elve
Ġrosa
ĠAtlanta
ieto
?,
ĠEver
Ġletras
ĠPear
.),
Ġconvidados
Ġvulner
ĠEssas
Ġlearning
Ġchosen
Ġyounger
Ġvend
Ġhappened
ĠExpress
Ġsalv
oto
IO
Ġdescoberta
CD
urando
ĠYears
lace
Ġexecu
Ġverificar
ĠÃ³timo
Ġferr
Ġorelha
Ġsabor
kg
ij
ĠFame
Ġpand
.).
western
Ġevento
Ġja
Ġdesloc
ĠGT
sel
ĠSeattle
Ġenormes
Ġalt
Win
Ġvender
value
Ġassumir
Ġcotovel
ĠjuÃŃ
Ġzero
torney
Ġpuro
Ġdetermined
Ġcolocado
Ġgrowing
tais
Sep
uca
ĠConselho
Ġdistricts
ĠMarshall
ĠMotors
ĠtranqÃ¼
Ġpreparado
tiam
Ġrecre
Ã³nio
veland
Ġabund
Ġalco
Ġadvers
unh
Ġcaminhou
Ġcumprir
Ġdaquilo
timore
ultura
Ġtentei
Ġbens
Ġperfect
ĠCaroline
ĠFrederick
Ġpoeta
Ġprost
Ġnascer
Ġpalco
Ġgarotas
ĠGram
Ġeld
idden
iversary
ĠRafa
Ġethnic
ĠLouisiana
ĠOcean
itados
Ġcoaches
ĠTerrit
Ġalvo
Ġpublications
tile
Ġcamis
ĠcadÃ¡ver
ĠBecause
Ġoldest
Ġvenha
ĠOtt
Ġpair
Red
Ġbairro
eption
Ġideas
ĠEddie
ĠVillage
Ġinevit
Ġsets
Ġreais
ĠTrÃªs
ĠCos
Ġfeitos
ĠvÃŃde
Ġestabelecer
ÃŃssimo
Ã¢ntico
Ġmachine
Ġtheatre
ĠCampbell
Ġdeixara
Ġtroc
Ġconcert
ĠDanish
Um
ĠVik
Ġexplain
Ġportion
South
ĠfÃ©rias
Ġplot
Ġcells
Ġencolheu
William
Ġ(;
Ġentrando
ramos
Ġformation
Ġsustent
Ġtheme
Ġvoltaram
Ġaren
ĠGary
Ġsn
ĠEvang
ficial
Ġloan
Ġnegative
Ã´nios
omar
Ġcrimin
ĠParker
ĠSud
ĠTam
onha
ĠDublin
Ġpunho
Ġansiedade
teis
ĠlanÃ§ado
phas
orden
Ġreligion
Ġprofile
ĠDak
Ġtwenty
life
aron
ĠApps
iverse
ounted
tidÃ£o
Ġcopies
ĠBuildings
odos
ĠSwiss
Ġyellow
Ġaccident
eless
igenous
Ġbegin
Ġfans
ĠBattalion
Ġforn
Ġanel
Ġbilhe
Ġganhou
Ġmemory
ĠNet
Eng
onial
ĠCond
ĠhistÃ³rico
Ġ(+
Ġquo
ĠDate
kin
ĠStudios
jando
Ġregul
ĠMap
Ġarras
Ġextensive
vak
Ġentusiasmo
Ġmales
Ġentraram
Ġends
Ġlegit
Ġjuntar
Ġprazo
Ġpretendia
ĠabraÃ§ou
Ġaltos
anhos
Ãºssia
Ġidentity
Ġhour
ĠTrump
Ã©rcio
Ġspons
ĠMagn
Ġdefinition
ĠStewart
Ġton
Ġcongel
Ġtower
Ġselvagem
Ġinn
sea
Ġocorre
Ġobviamente
ĠLanc
Ġfocused
Ġcamar
Ġsubitamente
ĠPitts
Ġnaval
ĠSalvador
NT
eraÃ§Ãµes
ĠlembranÃ§as
March
ĠoperaÃ§Ã£o
Wiki
Ð°
ĠKath
ĠNeste
vem
Ġconcern
iadas
ĠAquilo
Mic
ĠGard
Ġhomen
Ġmedian
Ġvehicles
imb
ĠRang
ĠClaire
ĠEva
%"
xico
ĠRuth
League
Ã¢mp
ĠCapital
Ġriso
ĠDrama
acos
ĠPot
rivelmente
Ġbarba
Ġtocando
Ġspring
ĠSob
night
Na
Ġslo
rome
ĠCit
ĠMÃ£e
ĠHouve
unct
Ġproxim
Ġsegurar
ĠLam
Ġpegando
ĠhÃ¡bito
ĠYouT
Ġbill
Ġsubme
Ġdeixaram
Ġsep
ĠSin
Ġdoutr
David
Ġshared
ĠinÃºmer
Ġrus
Ġhabitual
Ġcurta
ĠestÃ¡s
Ġcorria
ĠThompson
edoria
ĠMack
Ġbordo
ĠFried
ĠJulian
Ġchoice
Ġlevemente
ĠPope
Ġzona
Ġnad
?",
Ġacompanhar
Ġvolunte
Ġformerly
Ġportal
Ġprolong
Ã¢neo
Ġgigantes
ĠAdams
Ġpure
Ġdesignated
Ġanimals
Ġvaranda
ĠExÃ©rcito
Ġenvergon
Ġinfo
Ġabaf
Ġsuppl
Ġprosseguiu
ĠLank
ĠÃ´nibus
Ġburn
ĠTamil
ĠWindows
ĠJohann
Ġcontexto
Ġusa
eiros
Ġbillion
Ġcolabor
ituc
Ġdiplom
Ġtropical
ĠBush
Ġparque
Ġcatal
Ġinternal
ĠCrist
Ġunc
Ġlif
Ġdet
ĠBiography
Ġreplace
edo
ĠHunt
Ġpilot
ĠmÃ©todo
Ġfornec
ĠPuerto
necess
Ġsell
Ġvillages
Ġcaptain
Ġagress
Dem
Template
ĠConnor
Ġteaching
ĠnoÃ§Ã£o
Ġdeserto
met
tage
Ġpotencial
Ġscoring
Ġprofessores
Ġbunda
ĠdisposiÃ§Ã£o
teenth
Ġmethods
Ġpoderes
ĠJulia
oon
Ġassom
Ġreplicou
Ġjazz
leges
Ġdesafio
fety
Ġapply
Ġdesaparecer
ĠSl
ĠGun
Ġrationale
ĠDiana
olar
Ġdesejos
ĠCec
Ġinteresting
Ġbio
ĠKings
ĠBox
ĠBrigade
Ġmetres
Ġnotar
nership
ĠevoluÃ§Ã£o
Ġcosta
Ġdesg
Ġeffective
wp
fim
Ġmadr
Ġmaldit
ĠAlfred
ĠEach
ĠBefore
|-!
Ġinvestigation
Ġrecomp
iang
pel
Ġeducational
ĠAmy
Ġcontributed
Ġjogando
Ġlady
ĠHills
Ġesco
ĠLily
Ġsugeriu
Ġeventos
Ġheight
Ġpresum
Ġexpressed
ĠConstant
ĠLane
Ġindagou
hum
Ġacid
Ġhelic
Ġdent
Ġconseguiria
atell
ĠlÃŃqu
ĠSC
olished
Ġcoberto
...âĢĿ
ĠDeu
Ġexpert
elsh
ĠFle
Ġcontaining
Ġamigas
Ġhorse
Ġmantendo
ĠSwitzerland
Ġresg
ĠEnvironment
Ġmyself
Ġnoiva
Ã¡l
ami
igma
Ġocult
avera
Ġpriva
ĠtÃ©cnica
Ġaudience
acon
ĠBangl
ĠGray
Ġtriun
Ġsalvo
ĠSebastian
Ġobsc
uco
Ġcaught
ĠpraÃ§a
Ġcarinho
stan
orough
ĠSeg
omer
Ġaccused
uela
Ġsafety
Ġmoviment
Ġrefers
Ġstrike
ĠWard
ugada
usÃµes
ĠJustin
Ġrestored
Ġtrazia
Ġva
ĠInstituto
Ġkilling
Ġsolar
Ġcinquenta
Ġstating
thlete
ĠLogan
ĠNH
Ġfitou
ĠMarket
Ġonto
].
ĠIron
Ġsportsmen
udi
lets
ĠcartÃ£o
Ġ{{
Ġcarruagem
agan
Ġfolk
Ġhistorian
Ġthrow
onete
odge
Ġtemplates
Ġdrums
ouses
Ġdesenvolver
ĠrÃŃg
ĠHop
Ġnut
Ġcriou
Ġcrescimento
Ġwear
Ġfeet
ĠOff
Ġpesad
Ġdefic
mith
Ġanjo
order
Ġrelat
ĠGran
Ġescravos
Ġpesada
itante
Ġleitor
Ġletters
ĠbÃªb
Ġdeviam
ĠPodia
States
Ġconversando
Ġtoward
Ġdespe
Ġoption
ĠnecessÃ¡ria
Ġinjury
Further
Ġcalling
Play
ĠVenez
Ġrear
Ġexchange
Ġnego
ographic
Ġdeslizou
Ġparagraph
eus
ĠBowl
Ġcampanha
ĠSain
Ġwarning
Ġconflito
Ġdog
Ġteor
Ġdesk
lev
ĠaniversÃ¡rio
Ġdefinitivamente
ambiguation
Ġrefor
Ġreverted
Ġentrevista
ennis
Ġbrincar
ĠSpider
Ġmorning
Ġconvite
Ġprimo
edor
Ġclosure
living
Ġultimately
Ġrefused
Ġrecebido
ĠHelena
Ġsenhores
hr
ĠdÃ£o
Ġtornava
Ġrigor
Ġacum
ĠCentro
Ġanteriores
Ġsingular
Ġoeste
Ġprotes
ĠNav
Ġcorrida
Ġaparelho
Ġtroux
sha
aj
Ġpuls
Ġvital
Ġdaily
Ġemocional
Ġparecido
Ġmine
Ġespre
Ġfactor
ĠHawai
Ġsucceeded
under
lava
Ġadolesc
Ġreturning
Ġwouldn
Ġvehicle
ĠFall
Ġpoliciais
inaÃ§Ã£o
Ġlyrics
ĠTun
Ġsint
ĠFranklin
ĠfuncionÃ¡rios
ushing
Ġencontram
Ġcred
Ġholds
Ġparticularmente
Ġelevador
Ġretirou
Ġtirando
Ġstre
ĠWeb
Ġrecognition
Ġachieved
ĠBasketball
Ġapropri
Ġerros
sort
Ġping
fias
achelor
Ġinicia
ĠHope
ugos
Ġritual
Ġsourced
Ġprocessos
Ġtools
ĠKnight
ĠPoss
ĠFilho
Ġelement
itors
leans
.::
Ġlies
Ġfum
ateur
vest
Star
Ġcoberta
ĠidÃ©ias
Ġtron
encia
Ġemphas
ĠLost
Ġcricket
Ġerr
Ġheav
Ġassento
ĠBoys
iamond
Ġdemand
bral
ĠRain
estr
Ġassassinato
Ġseguido
ĠAR
Ġrostos
ĠAdvent
Ġparent
poses
ĠGirls
modo
Ġsubmar
ĠStats
Ġdesconhecido
ĠGusta
unc
Ġsupply
Ġdownload
Ġdum
enix
ĠActor
Ġsetting
Ġvisited
ĠVincent
ĠtrÃªm
uccess
Ġatirou
ĠmunicÃŃp
Ġguest
Ġreceiving
Ġreality
Ġintensidade
Ġpresos
Ġmaybe
ĠexercÃŃcio
ĠSpr
ologies
ĠHend
lock
ĠTournament
Ġplate
En
ĠÃ¡s
Ġpoderoso
Oc
fund
Ġproduto
Ġmala
Ãºdio
Ġrosn
ĠNash
Cont
Ġfraco
Ã¡stica
Ġpossam
Ġheadquarters
Ġexistia
Ġespect
Ġaired
Ġcricke
target
Ġtextos
-vos
Ġending
ĠCow
ĠFun
Sec
ĠVia
Ġaperto
Ġacordar
Ġapplication
Ġdomingo
ĠDiscuss
ĠavanÃ§ou
Ġpromote
Ġmatem
Ġeasy
Ġtrees
Ġattacked
ortheast
redos
ĠlicenÃ§a
Ġindicate
ĠBarbara
Ġqueira
Ġesbo
tus
Ġjap
Ġmoder
ĠCommunic
Ġ_
obox
ameter
Ġcriaturas
tificial
Ġlongas
Ġsober
ĠCeme
Ġinvi
Ġentendeu
Ġfila
Ġesto
ĠesforÃ§os
Ġtremendo
inheiro
ĠDy
wed
ĠNat
Ġlocations
ĠBarry
Ġ"?
Ġintenso
iders
Go
Ġreje
Ġfog
Ġderram
ĠâĪĴ
portation
ĠGib
Ġtrains
ĠRy
lado
Ġcasual
Ġarco
ĠIndonesia
Biography
Ġconverted
Ġlimite
ĠmistÃ©rio
ĠcaÃŃdo
Ġhot
ĠUniÃ£o
Ġregistered
ĠRicardo
ributions
ĠEis
ĠVale
Ġdisestab
ĠConfeder
Ġcoxas
Ġagentes
Ġexam
rix
ratio
ĠVers
iversity
Ġtemple
Ġtig
ĠcÃ£es
ĠveÃŃculo
Ġsixth
Ġparticipar
wich
Ġrare
ĠRobinson
andra
Ġsugest
ĠVit
Ġpit
Ġtradition
ĠPoderia
Ġagr
Ġcomprome
ificado
itter
Ġcalls
thodo
:#
ressed
Ġbos
oporto
ĠPolic
ĠRole
Ġinvolving
Preceding
ĠMuitos
Ġleste
Ġaproximando
ourney
Ġdecidido
ĠChron
valho
Ġrough
ĠBelgium
ĠAgric
Ġbroke
Ġcompris
ĠVeja
Ġmsg
Ã©ia
Ġinstance
Ġmusician
Ġultrap
Ġreconheceu
Ġbrut
ĠMurray
ĠjurÃŃd
ĠPerguntou
Ġquartos
iÃ¡
ĠCleveland
Ġfashion
Ġprotect
Ġdensity
iÃ§o
Ġgather
Ġrepresentative
Ġviolence
Ġpalma
ĠSchools
ĠDanny
qui
Ġfailure
aiss
Ġdie
ĠOfficer
Ġdefense
Ġmural
Ġbrothers
Ġaltar
ĠChang
ĠSemi
Ġeyes
January
Ġfacilidade
ĠBaltimore
Ġthanks
ĠAdministration
Ġlixo
ĠJamie
Ġredirects
ĠAustrian
ĠOscar
Ġtrag
entas
ĠEdinburgh
Ġcontribution
Ġsegue
Ġdeitar
ĠhipÃ³tese
Ġcomuns
endar
Ġahead
Ġforest
Ġagent
Ġbought
ĠMess
Ġracing
Ġtum
Ġguns
Ġlimpar
ĠQuebec
Ġasso
Ġregra
apolis
ĠUE
ourced
alu
ĠAmanda
OC
ĠespÃŃritos
Ġholding
Ġcarn
Ġsignif
Ġnamorado
Ġsettled
celona
Ġseguia
Ġ],
ĠBuff
aros
Ġgan
Ġshortly
ĠPalace
Ġmostrava
Ġherself
Ġabertos
Ġquant
Ġmentions
Ġmecan
omet
Ġstarring
Ġlamb
auti
World
Ġsolution
lik
tations
ĠsÃ³l
Ġdada
Final
ĠYouTube
ĠNovo
Ġfuga
WP
Ġdestruir
Ġapertando
ĠTeria
âĪĴ
Ġapparently
Ġmedieval
ĠMitchell
Ġequal
Ġring
ĠMans
MP
Ġformar
ĠWelsh
Ġoce
Ġacts
Ġitems
ĠRights
ĠAP
ĠdecisÃµes
ached
Ġferida
ÃŃqu
ĠRab
Ġcus
Ġchef
Ġcomercial
TS
ĠMedicine
Ġfields
cara
Ġexplan
Ġesque
ĠepisÃ³dio
ception
Ġexhibition
Ġinterse
Ġliberal
Ġhesitou
ĠLieutenant
onas
Ġwind
tructure
ĠDefense
hava
)(+
Ġesquerdo
ĠangÃºs
Ġjuris
ecting
fera
Ġferido
ois
Ġoppon
ĠYe
ĠVenha
Ġqualified
Ġdrogas
Ġtremer
Ġtern
ĠBlake
Ġbrincadeira
ĠHud
adow
Ġfraca
Ġtorre
spe
Ġsingers
Ġpieces
Ġdoor
Ġsuggests
ĠdirecÃ§Ã£o
Ġapprecia
ĠNeil
enceu
Ġanda
Ġdiscip
Â»,
Ġfacility
Ġmanagers
Ġtradicional
Ġliqu
Ġretarget
Ġcarga
Ġfinding
Ġseca
ĠBobby
Ġbob
Ġthir
Ġacons
ĠUC
fre
obile
Ġreconhecimento
Ġprojet
ĠindÃºst
Ġconcluiu
chen
antei
Ġimperial
cip
Ġtornaram
umbent
Ġfins
Ġafl
ĠDenmark
ĠciÃº
ĠMestre
gy
ÃŃblia
Ġresistir
todos
Ġappoint
ĠLegislative
Ġmedalists
anne
itivos
Reg
Ġpermanent
uct
ĠPlat
Ġconheci
ĠExecutive
tua
Ġdescoberto
Ġsupre
Ġinocente
regular
Ġapresentou
ĠsÃŃtio
Ġcento
Ġcaminhos
ĠCommunist
quete
ĠColomb
Ġredes
ĠinÃºtil
Â²
Ġretruc
October
Ġvin
illing
atu
mal
Ġtrabalhadores
ĠgeraÃ§Ã£o
ĠdivisÃ£o
odia
aki
?)
astre
ĠcabeÃ§as
ĠBlan
Ġligado
Ġcycl
gement
Ġdistinc
ixed
pg
Ġatingir
Ġatos
Ġficara
gui
ĠWarren
Ġmexer
ventude
heres
ĠRece
ĠtÃŃp
Per
Ġexperienced
Ġalmas
Ġliterary
Ġdoubt
roc
Ġpassara
unas
ĠcÃ³p
Ġindefin
ĠdÃŃ
ĠWright
antage
Ġcriados
played
ĠPittsburgh
ĠLarry
June
Ġrenda
ĠFora
Ġprecisamente
Ġdropped
ĠMarx
ĠCompre
Ġmarcas
Ġwit
Ġapaixonado
Ġpredic
Ġpecado
Ġsegurava
ĠRailroad
Ġpurposes
Ġsacrif
Ġarrog
ĠUtah
Ġacess
Ġconcentrar
ĠvÃ³s
Ġscript
ĠThrough
ĠVegas
hosa
Be
Ġhyd
throp
NS
Ġcharts
ĠWayne
ĠConcer
ĠSaturday
ĠLiver
Ġmeter
aissance
Ãºn
ĠWoman
ĠopÃ§Ã£o
Ġextremely
estyle
ĠKaz
ĠColin
Ġcategoria
Ġsave
Ġprovis
Ġtard
Ġchorando
Ġhabilidade
Ġfatal
Ġdies
ĠSpencer
Ġrail
Ġvoted
ĠPesso
ĠAmor
Ġplantas
ĠAssist
Ġlareira
Ġatingiu
ĠMission
ĠRobin
Ġultrapass
ĠfarÃ¡
Ġfals
ĠTrust
idal
Ġarguments
Ġposse
ĠFra
Ġbroken
agues
ĠCarn
Ġscale
hman
Ġvinham
ĠAthletic
udio
]/
ules
Ġvencer
itaÃ§Ãµes
ĠArkansas
Ġmerging
Ġatender
ĠAfghan
ĠAlban
ĠNorman
Gu
Ġmetr
esp
Ġconsec
ĠFilip
ĠDuncan
What
ĠOutro
ĠPur
Ġtex
ĠextensÃ£o
ĠTon
fle
Ġfounding
Ġabsoluta
Ġlutando
ĠCurrent
...âĢĵ
Ġcorp
Ġescondido
Ġconfusa
Ġbalance
Ġsportspeople
Ġaumento
Ġentitled
Ġfought
ĠCemetery
Ġnegoti
formance
Ġaged
Ġreser
Ġembr
Ġromp
emas
Ġflutu
ĠobservaÃ§Ã£o
ulg
ĠcentÃŃmetros
ĠBai
Ġflex
à¸
ĠsecretÃ¡ria
ĠBou
Ġcausing
idges
Ġparentes
Ġstuff
Ġresolveu
summary
entado
Ġusou
Ġbelief
ĠGeral
ĠPD
ĠTransport
Ġ*:
Ġavalia
Ġtropas
ĠRib
ĠEvans
Ġtranquil
ĠArc
Ġsistemas
Ġfamoso
ĠconfortÃ¡vel
atever
Ġfaced
Rel
Ġvivos
Ġbochechas
ĠvÃŃtimas
Chris
Ġhaja
April
ulate
Ġbanned
Ġdriver
Ġaltas
Ġpainter
Ġcorrig
ĠpÃ³s
Ġerrada
Ġinteressado
ĠShel
Ġstock
Ġdefens
ĠGriff
Ġtoca
ĠElis
ĠSanti
Ġrain
ĠFight
Ġenfermeira
Ġuniform
Ġvolumes
Ġbeijar
ĠBenn
ĠNever
licaÃ§Ãµes
Ġlect
Ġsignificantly
Ġpano
ĠGostaria
Ġracial
ĠKy
Ġantigas
Ġdestes
iev
ĠArchives
Ġasking
ĠcÃ©l
Ġracional
eration
Ġtril
Ġstatements
ĠBear
Ġacabara
Ġcorner
Ġelemento
Ġpessoais
Ġfinds
Ġaban
ĠMountains
Ġvenda
Ã©dito
hen
Ġorgul
Ġpontas
ĠCP
ĠAthletics
Ġpilha
Ġinfec
indas
Ġrevelar
Ġadministrator
attan
Ġrecorda
Ġbochecha
Ġreporting
Ġchurches
ĠBaker
Ġresum
Ġglass
Ġsoccer
Ġdescansar
Ġpoltrona
Des
ĠCollection
Oh
Ġestive
Ġpione
Jos
Ġaviso
Ġsufoc
Ġconex
queta
ĠpermissÃ£o
Ġflat
ampouco
Ġilleg
Ġcoronel
Ġpursu
Ġsubjects
ĠCentury
Ġfurioso
Ġgrit
enciais
Ġcolega
Donald
Ġwiki
ĠTrade
Ġtrabalha
reiros
ĠContin
Ġtoma
Ġdissesse
ĠLead
ĠMuitas
ĠalemÃ£es
Ġsabedoria
ĠAuto
Ġmold
ĠMys
Ġcommissioned
Ġshape
Ġdetermine
Ã¡logo
ĠPersonal
Ġargued
ĠMÃ©xico
ĠJerry
Ġestrela
encing
Ġpolegar
Ġcontrast
Ġparticipate
Ġinconsciente
Ġautores
Ġscheduled
Ġexplained
tims
Ġescape
ĠHero
ĠCheck
Ġimperador
Ġkeeping
Ġrequested
ĠName
Ġinvasion
ĠRight
ĠVida
Ġconfuso
ĠSto
ĠLuz
Ġstands
ĠCricket
ĠGonz
ĠBrooklyn
feit
Ġpowerful
Ġrepresenting
Ġcadeiras
gnos
Ġreaders
Ġproduzir
Ġporto
ED
Ġfilhas
urei
ĠpossÃŃveis
Ġplanning
ĠLanguage
ĠOS
ĠRico
ĠPerry
ĠbotÃ£o
Back
Ġrejected
Ġfechado
Ġcenturies
ĠKr
December
Ġmanifest
Ġharm
ĠBuc
pi
Ġferrament
Ġgrounds
ÅĤ
Ġcoro
Ġcortar
Ġwants
Ġbiography
Ġeconomy
August
Ġviolation
Ġpeixe
ĠpÃ¡lido
ĠsÃºbito
Ġcasado
Ġmaximum
ĠApple
Ġtrocar
Ġrecru
Ġrequires
Ġria
Ġgone
Ġajoelh
Ġimenso
EntÃ£o
Ġplayoff
Ġcitations
akh
Ġvoltei
Ġtun
Ġfortuna
International
%,
ĠEconomic
Ġvirtude
ĠId
imir
Ġpasta
Ã§adas
Ã³so
Ġborda
Ġmoda
Ġmapa
ĠFront
Ġciv
ĠArn
Ġmundial
Ġrender
ĠCommander
Ġunre
tip
Ġverif
Ġdynasty
ĠGio
Ġintroduction
ĠPil
Ġsemelhantes
ĠMaggie
Ġperforming
Ġindependence
ĠOlhei
Ġdecre
Ġcircum
Ġfaixa
Ġperfume
ĠPsych
Ġincenti
entimento
Ġmensagens
lined
Ġ{"
ĠStanley
Ġexal
ĠAmong
Ġviajar
ĠfunÃ§Ãµes
Ġbear
Ġenvironmental
First
Ġmata
ĠVlad
ĠMetro
Ġveja
Ġgirls
Ġfechados
Ġvisse
ĠUniversal
Ġheavily
Ġfotografia
div
iliar
Ġsubindo
Ġafe
ĠraÃ§a
Ġlicense
Ġoccupied
Ġconsisted
Ġvantagem
ĠoraÃ§Ã£o
Ġcarbon
Ġgeneration
Ġoccurs
ĠaÃ§
ĠfÃ¡br
ificar
Ġenvolver
ĠEnergy
Ġpassam
ĠEncyclopedia
ĠRivers
Ġestablishment
Ġseeing
bio
Ġocor
Ġaumentar
Quando
Ġartes
Ġencyclo
arina
Ġengaged
Ġbias
Ġtoalha
Ġdesemb
IL
Ġnua
ĠquÃŃm
:**
Ġdama
Ġmuda
Ã©sar
Ġpassavam
Ġeye
Ġserviu
ĠRal
Ã³lico
Ġnegar
ĠPeace
Ġrequirements
vial
Ġupdated
ictions
edas
Ġinaug
ĠJoy
ĠMons
Ġtrilha
Ġweapons
Ġpossibilidades
Ġinquir
Ġsought
Ġnavios
Ġocupado
Ġcompetitions
July
din
Ġjuntas
Ġgrama
Ġcriticism
ĠMetropolitan
Ġfamiliares
Ġunhas
ĠAlexandre
Ġsegredos
Ġexager
Ġensinar
Ġentreg
Ġnotify
ÃŃmp
Ġcompil
ĠHold
ĠbalanÃ§ando
quesa
indow
Ġwinter
Ġocorrer
Ġcultiv
ĠCertamente
ĠvÃªm
ĠOpera
Ġinstant
Ġabstra
Ġox
ÃŃtica
Ġfirmeza
boy
aire
Ġperdida
celha
Ã©dios
Ġletra
ĠHungarian
Ġdirectors
Ġadicion
ĠxÃŃcara
ovi
Ġtranslated
ĠNoah
ĠBea
Ġacalm
?âĢĿ,
Sh
ĠDireito
ĠResp
final
entina
ĠReserve
including
ulando
ĠJogos
ĠBarcelona
Ġtrope
ĠFive
ĠcenÃ¡rio
Sem
Austr
ĠexplosÃ£o
Ġsaltou
Ġamericanos
Ġruss
Ġsoci
ĠIM
inna
mi
ĠBÃŃblia
Ġjustif
bul
ĠBruno
rasse
Ġgender
ĠSteven
Ġinvited
Ġtribunal
ĠMcK
icais
Ġimpacto
Ġtac
ÃŃculos
Ġinch
Ġfalado
Ġsoz
ĠMalaysia
ĠfÃª
ithuan
Ġpermitiu
Ġdescribes
ĠSpir
ancou
Ġtalking
Ġchocolate
ector
ĠChampion
lature
September
Ġirregular
Ġdesenc
irmingham
Ġauthors
Ġaware
ĠPhilos
Ġdeterminada
Ġatravessar
enciar
Ġesquina
Ġaid
Ġcujos
Ġestremeceu
Äĩ
laus
Ġirritado
ĠHil
Ġescolas
ĠespÃ©cies
mund
Ġrise
ĠCad
ĠBrothers
ĠrevoluÃ§Ã£o
Ġphase
ĠBaby
Ġtemperature
Ġinterval
Ġsentados
pedic
Ġconseguisse
ĠHugo
ĠOrchestra
cto
ĠDakota
Ġemiss
Ġgemido
ĠFull
inking
ÃŃstico
Ġhier
Ġinfantil
ĠRÃºssia
Ġcord
autiful
ĠOrleans
Ġdivor
indic
Ġsche
Ġvil
rase
ĠTrip
ĠcaÃ§a
Ġcompete
Ġsobrancelha
AL
Ġcontained
._
Ġlawyer
ĠMayor
Ġcollected
Ġjump
Ġtons
ĠTÃ£o
Ġenfiou
Ġanaly
enÃ§o
Ġstrongly
ĠsÃ©ria
Ġcontigo
icance
Ġextens
anhattan
while
ĠPictures
tees
Ġleads
ĠSpar
Ne
contro
ĠBot
Ġsty
ĠAchei
Ġfunctions
Ġtransformou
ĠWarner
Ġthorough
Ġestranhos
Ġvirando
ĠAlberto
ĠNaquele
ĠtÃ¡xi
Ġreven
ads
java
Ġlearn
ĠMeth
ĠAlas
ĠFantas
Ġprofessora
Ġlevaram
Ġacampamento
Ġincer
Ġrenov
Ġusada
Ġleu
ĠrefeiÃ§Ã£o
Ġpredomin
Ġtask
Ġlorde
Ġaffected
Ġraios
Ġretirement
ĠSportspeople
Ġbata
Ġrota
Ġpratos
Ġsuccessfully
Ġrich
Ġcup
ĠMS
Ġadvice
Ġalien
Ġquebrar
Ġsomewhat
Ġabandonar
ĠWW
Ġvisitas
Ġencontramos
Ġpandemic
ĠSid
ĠReference
Ġmaintain
Ġclosely
Ġpaintings
Ġsud
Ġflan
November
Ġequivalent
ni
Ġatravessou
Ġenxer
Ġkick
Ġselection
Ġcamb
Ġabandoned
ĠHas
ĠcomentÃ¡rios
Ġemployed
Ġpeguei
ĠOnce
Ġprogresso
Ġsituated
Ġceremony
Ġprotagon
Ġpessoalmente
ĠCook
Ġfascin
isp
Ġdeveloping
Ġfronteira
Ġficavam
ĠminÃºs
ĠCinema
Ġcansa
ĠTreat
Ġescolhido
ogrÃ¡
Port
Ġenemy
Ġinterfer
ampton
ĠexceÃ§Ã£o
ĠMale
ĠApp
Ġrepro
Ġmit
Ġdismiss
ĠOttoman
ĠEdition
Ġsav
Ãºcar
ĠThailand
ĠES
Ġpedi
ĠmetÃ¡
missÃ£o
Ġok
iseta
yees
Ġaceitou
Ġperdendo
Ġdirigindo
ĠclÃŃn
vor
Ġpintura
ĠCarib
Ġconversas
ĠCrown
Ġcomposition
Ġstrip
Ġdeixaria
Ġriqueza
rell
Ġscope
aments
Ġlivres
Ġenvelop
Ġlake
ovos
Ġencoun
Ġpiscou
Ġcontroversial
ĠIrm
ĠFinland
Ġgemeu
Ġchanging
inch
ĠLang
ocated
Ġeditorial
ĠTommy
Ġafastando
burn
Ġstarts
ĠEmer
ĠcomeÃ§ado
)#:
Ġuniforme
ĠHannah
ĠTurner
Ġreign
Ass
rystal
Ã©cia
With
Ġgord
Ġdeitado
Ġintelectual
Ġlantern
Ġrecommend
ĠDog
Ġwalls
Ġdecades
Ġpoesia
azines
ĠHarrison
Ġatacar
ĠChase
Ġesmag
ĠAbdul
Ġarb
Ġcamiseta
Ġenviou
thodox
Ġmot
Ġclosing
Paul
Ġdetail
ĠChem
uxo
Ġcoluna
Ġgri
ĠsÃ¡bado
Ġdiziam
Ġbaile
ĠCand
ĠRua
ĠBrand
overs
ĠHell
Ġterap
Ġdistinct
Ġtemplo
hard
ĠtaÃ§a
Ġfina
ĠMarcos
ĠDever
Ġcicatriz
Ġsacrific
Ġtall
Ãł
Dist
Ġpublicado
Ġcrescente
Ġlac
Ġindeed
Ġraci
Ġracioc
mat
ĠCÃ©sar
Ġcollaboration
iments
Ġgargalhada
ĠJazz
Ġvestidos
Ġbala
Ġexercis
Ġeva
jada
vate
imens
Ġbacking
Ġaccurate
ĠMarvel
Ġtomada
Ġconcerned
ĠLiverpool
Ġdores
ĠCollins
ĠPortland
Ġdavam
Ġjunior
ĠSeja
Ġafas
Ġplas
ĠEllio
ĠSaf
Ġvim
Ġdesenho
Ġsymp
Ġtrav
aduate
place
West
Ġmoderna
Ġretorno
ĠprovÃŃnc
Ġbes
ĠGill
Ġfranch
ĠAcademic
ĠDeputy
ĠBapt
Ġtraduz
ĠmatÃ¡
ĠDictionary
Ġbande
Ġmenores
According
aya
Ġfeminino
ducing
Ġreleases
Ġobjects
bres
Ġarquite
Ġrisc
rosa
mÃµes
Ġreserva
ella
Music
uster
ĠOrdem
Ġdocuments
ĠRebec
Ġhorizonte
ĠStuart
Ġmassac
Ġministro
ĠInternacional
Ġpup
Ġinjured
Ġgay
ĠAgency
ĠClube
ĠQuarter
ects
enne
Ġviria
gow
ĠviÃº
Ġresmungou
Ġerror
Ġwealth
Ġteus
Ġfiel
icket
Ġcrow
idado
idem
Ah
Ġreduce
NE
Ġpowers
ĠFile
Ġputa
Ġjulgar
ĠMasters
Ġconheceu
Ġimensa
Ġmerch
Ġpeer
Ġstanding
Ġentendia
Ġpacientes
awa
iring
Ġescutar
Ġcelebr
free
ĠOutra
ĠLil
Ġguess
ĠEstÃ£o
ĠCraig
gura
ĠAlliance
ĠLevant
Ġinfluenced
ĠcristÃ£os
Ġhappy
voa
ĠCuba
Ġplena
Ġlands
ĠArchitect
Ġmorrido
Ġcauses
engers
ĠLima
ĠBangladesh
Ġconstantemente
ĠFarm
Ġcircular
Ġcober
ĠHale
Ġhair
Ġvimos
Ġmilit
Ġabsolute
ĠNumber
aleiros
ĠPun
Ġnewspapers
friend
Ġpartil
Ġtennis
Ġtouchdown
ĠPrecisamos
ert
Ġfresco
Ġcaminhando
Ġbasta
!)
Ġfactory
Ġbases
ĠRaj
ĠHomem
ĠNation
ĠangÃºstia
ĠfilÃ³so
Ġconsecutive
How
but
Ġobserved
Ġoffices
Ġpente
quÃªs
ĠConsegu
Ġvies
Ġrecentemente
issionais
ders
ĠrelatÃ³rio
ĠKeith
Ġmorar
Ġcabana
ĠFranco
ĠNenhuma
ĠsolidÃ£o
Ġpoetry
ĠÃłquela
Ġbeijos
Ġimaginando
Ġvoo
Ġdeplo
Ġresigned
ĠporquÃª
ÃŃdos
ĠConservative
oke
Ġaventura
ĠvinganÃ§a
Ġtool
ĠAdela
ĠameaÃ§
Ġsymbol
Ġpraised
Ġderived
Ġattribu
ĠCrime
ĠSteel
ĠSad
ĠLind
Ġpaisagem
Ġjornalista
ĠIce
ĠBuck
Ġfuel
ĠNep
Ġadjac
Not
Ġcavaleiro
Ġsecretary
Ġfear
Ġteste
Ġproved
Ġentrance
Ġthousands
ĠAi
Ġfunding
Ġic
tidade
Ġdemonstrar
ĠHampshire
Ġartificial
Ġacontecia
cell
ĠRev
Ġplata
comp
ĠMaine
iei
Ġinhabit
outs
Ġfuneral
Ġorders
Ñģ
ĠregiÃµes
Ġcatch
oured
ĠDJ
Ġplus
ĠManhattan
Ġneither
Ġsuficientemente
Ġfixamente
Ġagency
ĠNomin
terdam
Ġtrono
fal
ĠessÃªncia
Ġpertence
ĠMario
ĠArtist
ĠStars
ĠBroadway
ĠFri
tiver
Ġnaturais
ĠconseqÃ¼
ĠNapole
Ġmesas
temporary
Men
Ġvap
ĠCri
Hon
Ġactresses
ĠPack
Ġpego
ĠMovie
Ġpira
cidas
Ġgrunh
Ġbands
Ġbrown
ĠFam
li
Ġtarefas
Ã©lia
orkshire
onymous
Ġarranjar
CC
Ġconn
Ġnaveg
ĠWo
Ġperplex
Ġoferta
Ġvossa
Ġcausar
Ġquinta
iour
Ġiriam
Team
acidade
Ġcomed
North
Ġcub
lel
Ġintrig
ĠViu
AA
ĠAlumni
Ġconcluded
ĠEM
ĠRafael
Ġrecente
Ġbriefly
Ġvoltava
Ġvalues
Ġtecnologia
colm
ĠPrincess
Ġfantasia
Ġcold
ĠaliÃ¡s
anche
ĠAnnie
Ġvoltado
James
ĠAaron
ĠJacques
That
ĠYan
Ġdescrever
Ġreviewed
Ġcristal
olina
Ġdit
Ġlendo
ĠScar
Ġabuse
level
Br
ĠSentiu
Ġmoch
ĠDennis
Ġinterests
Ġchemical
Ġdisapp
ĠficarÃ¡
ĠtendÃªncia
Ġyes
ĠSofia
Sources
Ġretirar
Ġverdadeiramente
Ġflood
ĠLinda
Ġfrequentemente
ĠMend
ĠChamber
adrÃ£o
Ġsun
Ġdesejar
Ġinstrumento
anni
ĠFico
ĠgarÃ§
erek
Ġexpuls
Ġavist
ĠtraduÃ§Ã£o
atra
Ġcolar
ĠdifÃŃ
ĠdifÃŃceis
cue
Ġrazo
Ã³logo
ĠdÃ©cadas
ĠTrack
Ġfoundation
Para
Ġintroduz
emen
logos
Ġautoridades
ÃįTU
Title
ĠTive
Ġreception
OL
Ġmanner
Ġincorporated
Ġmovendo
Ġsummar
ĠSoccer
Ġbando
ĠBirmingham
Ġpersons
trou
Ġapel
ĠlanÃ§a
ĠLibert
how
Ġmaintained
Ġgabinete
ĠTeresa
Ġopportunity
Ġdisruptive
Ġneles
ĠPopular
Ġchampions
Ġopposite
ĠinstruÃ§Ãµes
Ġwilling
ĠtraÃ§os
ĠMotor
Ãģ
Ġpartnership
Ġestudantes
ĠpercepÃ§Ã£o
Ġcess
Ġmonstro
ciais
ĠAcha
ĠDevia
Ġdisto
Ġadiant
isation
igi
Ġpede
ÃŃdia
_(
ĠestÃºdio
Ġespanto
Ġcalmo
Do
Ġcalcul
ĠCreio
Ġunus
Ġfizer
Ġcomic
ĠDepart
ÃįTULO
Reason
ĠinterpretaÃ§Ã£o
Ġbodies
Ġmudado
Ġencarar
Ġhighway
cem
Ġdescar
Ġmetro
ĠNazi
Ġspam
song
ĠNancy
power
ĠpoderÃŃamos
ĠInde
ĠMediter
ĠGlas
Chart
ĠâĢł
ĠLeban
vie
ilmente
Ġcurioso
atellite
Ġoffensive
ĠplÃ¡stico
election
Track
Ġprocurava
Ġdispens
Ġreserve
ĠmantÃª
ĠContributions
umption
ĠÃĹ
ĠTib
ĠcomÃ©rcio
Ġdescan
mbolo
ĠForam
Ġpatients
Ġstopped
ĠhaverÃ¡
Ġcontando
iÃªncias
Cast
ĠWrestling
phone
Ġentrava
Ġhonest
Ġgrava
ĠMadison
ĠOperation
ĠThough
ĠSources
Ġentrev
ĠAur
Ġfranceses
Ġevalu
Ġpense
ĠBelgian
Ġvelas
Euro
ĠcÃ¡l
Ġboat
Ġdroga
ĠdeclaraÃ§Ã£o
ĠJennifer
elia
million
Ġvermelhos
Ġcompromisso
Ġaproximava
Ġusual
ĠNord
kespear
hai
het
ä¸
Ġstadium
pop
elizmente
ĠKu
Ġsteel
ĠStandard
Ġcirurg
ĠProfessional
ĠOi
Ġextension
Ġmarcha
Ġdiscipl
Ġjogador
limin
ĠLua
Isso
ĠvÃŃdeo
fare
grade
Background
Ġintensa
Ġfestas
jing
Ġconto
ĠexcitaÃ§Ã£o
ĠChallenge
{|
Ġatraente
Ġgang
Ġtravesse
Ġmaldito
ricane
ĠOutros
ĠTerry
Ġfunciona
Log
Ġapoiou
osure
Ġprogramme
ĠAdv
Ġcantos
Ġoposto
Ġready
Ġvivendo
ĠMiranda
Ġben
itucional
Ġlaid
Ġinformou
ĠExpatriate
ĠDin
ĠGrey
ĠSoft
alhas
ĠprÃ¡ticas
Ġmut
From
ĠYorkshire
Ġblocks
ika
ĠFitz
ĠlenÃ§o
Ġprofissionais
ĠJoan
Ġensure
ĠfenÃ´meno
Ġtomb
Ġempurrando
estava
guez
Ġthinking
ĠCant
ĠrealizaÃ§Ã£o
ĠgrÃ¡vida
Bibliography
ĠHungary
Ġjuntamente
February
fall
ossos
Ġpassenger
Ġcooper
Ġcontor
UN
Ġmarketing
ĠOR
Ġfechando
ĠBetween
ĠcontÃŃn
apan
ĠMars
ĠlanÃ§ar
Ġairport
Ġseconds
Ġshooting
ĠWes
Ġcenho
ĠJenny
olia
Ġhaven
Ġcastle
ĠTia
ĠDyn
Ġmuro
iloto
ĠRalph
rastructure
ĠDisplayed
Ġmaravilhosa
ĠColonel
ĠWhere
ĠÃŃntimo
Ġprice
ĠTower
ĠBond
Ġguardar
ĠLuiz
Ġinspec
ĠHapp
Ġdanger
!,
Ġserp
Ġengoliu
Ġdimens
Ġvertical
Ġrebu
lee
Ġretrucou
Ġsounds
Ġrealizado
Ġpovos
Ġcommunication
grafo
Ġrevis
ĠDuas
Ġinterrup
Ġbenefit
Ġmateriais
ĠStart
Ġsussurro
ĠMurphy
ĠvisÃŃvel
Ġconduct
ĠTanto
Ġchegamos
ĠMovement
Ġespeciais
coming
Ġmemorial
^{
letas
ographics
Ġartistas
Ġcous
eland
ĠBroadcast
Ġvigil
Ġhired
ĠYu
Ġrequer
Ġintelligence
ĠPete
kespeare
ultan
Ġqueremos
umer
Ġkil
Ġchose
ieties
Ġlaran
peÃ£o
ĠDue
Ġsignificance
ĠMath
ĠnÃ³
ĠSyl
Ġaonde
Ġfoco
ĠglÃ³ria
tability
Ġdesaparecido
ĠQuinn
Ġvelhas
Ġcommitted
Ġidentificar
person
ĠKaren
Ġacalmar
Ġbed
Ġregarded
ĠherÃ³i
ĠIndo
Ġmerece
Ġexpor
ĠHein
Ġantecip
Ġinstalled
ĠSelf
Ġcompro
ĠPhoenix
orses
Ġfuncionar
ĠAman
Ġamarelo
Ġresistance
ĠSeth
Ġacordou
ĠSrta
Ġtivemos
Ġenviar
Ġtaxa
Ġcadeia
Ġpostura
Ġagradecer
Ġabal
rimentos
Ġcontroversy
ih
Ġfleet
heastern
ĠRodri
ĠdÃºzia
ĠSantiago
Ġpapers
Ġencontravam
Ġchaves
oli
ĠmantÃ©m
ĠSai
ĠLorde
Ġtenente
ĠAires
Ġdemonst
Ġquaisquer
Ġknew
Ġmotion
Ġestat
Ġencam
ĠPergun
Ġlandsc
Ġrevolution
ĠinstituiÃ§Ãµes
Ġdestas
Ġarmad
ĠWel
Ġindependente
Ġdireta
Ã¢mina
Awards
Ġsexta
ocked
urados
Ġvotos
Ġmadrugada
Ġworldwide
Ġphilosophy
fts
Ġweather
Ð¸
Ġgirou
Ġprogramas
ĠCaliforniaCategory
Ġarro
ropical
Comp
Am
rama
Desc
ologists
ĠHarper
Ġjuventude
eciam
Ġstring
Ġvalu
Ġvast
Ġaccompan
Ġconforto
Ġjustice
Ġoit
Lond
ĠBh
Uma
assy
ĠgÃªme
ĠOlympicsCategory
Ġdub
ĠChristi
izando
ĠMamÃ£e
Ġtreinamento
%)#
Ġanc
Ġengines
Ġdupla
Ġcitation
Ġdesma
azar
Ġeta
Ġpersu
Ġsubstantial
ĠNS
ĠWriters
phan
diava
pm
Ġdetailed
bai
Ġinterac
found
mulo
ĠDesta
Ġplen
iedades
Ġfalso
ulou
Ġpoeira
vei
PA
ĠocasiÃµes
gento
eci
Ġitaliano
ĠJessica
sche
ianos
Ã¢mica
Ġrestante
Official
ĠGuil
Ġlobo
died
Ġscenes
ĠCompet
Hel
haw
thesis
ĠEthan
iador
ĠHim
ĠAliÃ¡s
Ġparcial
Ġemployees
oga
Ġadvent
ĠdescriÃ§Ã£o
Ġdescribe
ĠLiterature
Ġpistola
Ġshut
ĠAvia
Ġcompreend
Ġleal
ĠSnow
itic
Ġfrancesa
Ġtypical
Ġorn
Ã´modo
Ġprivi
Ġacabava
Ġpunhos
ĠNovel
ĠLÃº
estes
ĠChev
arte
Ġmir
ancouver
Ġcomplexo
ĠRomania
ĠEstavam
ĠToy
ĠdeterminaÃ§Ã£o
Ġsoltar
Ġanimated
Ġchamando
Ġconser
Ġembara
ĠAce
ĠconsequÃªncias
Ġlicens
ĠHindu
ÃŃcula
Ġcruzou
Ġprima
Ġargumento
Ġrepetir
Ġassumed
ĠAction
Ð¾
bie
ustraÃ§Ã£o
Ġassustada
Ġbirds
ĠDevo
ĠNessa
ĠRan
Ġvaga
ĠNO
Ġlibertar
Ġhappen
Comments
Ġquantos
Ġlegend
Ġreaching
ĠlÃ¢mina
Ġcombination
Ġassistance
Ġsale
Ġestacionamento
ageiro
ĠConstitution
Ġamericana
endment
Ġprestar
Ġencheu
Ġcujas
ĠMinistÃ©rio
ĠadministraÃ§Ã£o
Ġendire
ĠindÃºstria
Ġfita
ivan
eding
ĠPrimeira
ĠdesagradÃ¡vel
Ġfunds
Ġarmed
Ġtrazendo
ĠmÃ¡r
Ġcontava
Ġguide
Ġlento
ĠExt
ĠÃ¡ra
ĠVas
Ġconhecidos
Ġtalento
Ġpercebe
Ġprevis
Ġconseguiram
phere
Ġdrawn
Ġmedidas
Ġonze
Ġmortal
ĠKay
ĠLad
ĠPerformance
Ġusage
ĠHudson
Ġfiled
Ġjoining
Ġconsiderando
ĠRichmond
Ġlembrando
Ġresolve
Ste
Ġaceno
iability
Ġesquis
Ġescolheu
ĠProduction
ĠEspere
Ġfiguras
ĠCoach
ĠControl
ĠIsaac
Ġbin
Ġabaixou
Ġsession
ĠcÃ³digo
Ġencarreg
rical
Ġpublishing
ocation
ĠdiÃ¡rio
Ġseguiram
Ġiguais
Ġrepublic
dale
ĠGrupo
ĠWas
Ġvizinhos
Ġcaixas
ĠVienna
Ġbris
ĠEscola
Ġlimpo
ĠAzer
Ġcinto
Ġencaix
Ġfracas
sol
lla
rina
Ġsafe
ĠJapÃ£o
Ġinglesa
ĠML
Ġdescendo
Ġfla
ĠCameron
Ġbringing
borough
Ġaeroporto
Ġhook
Ġvila
Ġhouver
Ġinver
Film
ĠCastro
Ġansioso
Ġparalis
Ġclin
ĠAdelaide
ller
ÃŃsmo
Ġadmitted
Ġzone
Ġmyth
unes
Ġitem
Ġaspects
ĠCÃ¢mara
Ġgovernador
ĠLimited
ĠShakespeare
ĠPolicy
ĠRomanian
ĠmÃ¡scara
Ġq
Ġedge
Ġhuge
Ġbishop
ĠpadrÃµes
Ġgostou
Ġreaction
Ġlavar
YK
ĠOwen
Ġrh
ĠapresentaÃ§Ã£o
Ġrandom
Ġabertas
ĠoposiÃ§Ã£o
Ġpropaganda
ems
Ġescala
ĠMuhammad
Ġnuca
ĠSerbian
ĠlÃŃquido
Ġlearned
Ġcontorn
ĠNosso
ĠRecon
Ġadmitiu
Ġpremiered
Ġ(,
Ġtas
Ġestrange
Ġnuvem
Ġturns
Ġminute
oneses
termin
ĠClassic
ĠsÃŃmbolo
ĠStaff
ĠdomÃ©s
Ġclassification
ocou
ãĢ
Ġreasonable
lett
SR
ĠCale
Ġconstituency
ĠFeliz
ÃŃnas
Ġaproveitar
ĠCai
ĠWa
Ġhumans
ĠStudio
Ġstorm
Ġuniversidade
ĠThus
Ġarrumar
Ġfinishing
Ġfod
Ġaristo
Ġcreator
ĠElena
During
Ġheat
hom
ĠGulf
Ġemocion
Ġmarch
ĠDei
Ġbrain
Day
Selected
Ġruled
Ġconsisting
ĠmÃ©dio
Ġestreita
Ġatmosfera
Ġadolescente
Ġgigante
Ġskills
Ġnick
ĠMerc
Ġlarga
Ġparticipation
ĠhÃ³s
itam
ĠcientÃŃfica
Ġafirmar
German
ixon
ĠJoaqu
ĠNam
cles
ĠAdditionally
gery
ividual
ĠGuine
pert
Ġretrato
ĠTyler
Ġregularly
Ġmasculino
Ġscientists
Ġrelativamente
Ġalimentos
ĠHarold
ĠSpam
One
utores
Ġaudio
ĠPouco
Ġimaginava
Ġcapture
ĠKra
Ġestados
rees
Ġremoving
Ġmonument
ĠÂ§
ĠFranz
ĠdoenÃ§as
estro
Ġpretende
Ġconsenso
ĠnÃŃveis
agos
istol
ĠLithuan
Ġnamorada
ĠLivro
Plot
Ġwindow
ĠJulie
ĠAdditions
Ġmedicine
ĠEditora
ĠRaymond
Ġmelanc
Ġcharges
ĠPopulated
ĠtÃŃm
ĠLloyd
Ġtapete
Ġficamos
Ġterno
ĠYugos
Ġportuguesa
Ġincorre
Ġdesigner
Ġislands
ĠOrange
Ġricos
Ġdeleting
Ġraramente
Ġdry
ĠCode
ravam
ĠJas
ĠCidade
ĠHerbert
Ġvela
ĠRav
ii
ĠArtists
Ġgarden
ĠBible
atÃ³ria
Ġfictional
Ġcovering
Ġmedium
tria
Ġdeputy
Ġprejudic
ĠXavier
ĠMalcolm
ĠConfederate
ĠLouise
ĠDrake
Ġreconstr
Ġconform
agh
ĠÂł
Ġtentado
Ã³rm
ocr
inhou
ĠOtto
brou
ĠDas
Ġdivina
Ġviagens
Ġinstrumentos
Ġmelhorar
Ġpiso
Ġsoou
ĠGlasgow
Ġfreedom
arm
Ġhomes
Ġexame
Ġapertado
Ġdiagnos
Ġconsiderada
Ġtrained
ĠAlguma
ĠTH
Ġmorrendo
ĠSite
ĠPolitics
Ġcompras
forme
Ġdecep
ĠAld
ĠUse
ĠStevens
uzz
Ġprometeu
Ġobjetivos
Ġinstinto
Ã¡gil
Ġabrup
ouros
Ġobsess
Ġcrisis
Ġluxo
Ġati
ÃĢ
ĠsensÃŃvel
ĠTraining
Ġhang
ole
Ġviesse
ĠLig
Ġfacts
Ġchate
Ġhostil
Bill
Ġchapter
Ġarchae
Ġtwelve
ĠSingle
Ġcontrolled
ĠCanal
ĠnÂº
Ġkid
ĠTax
Ġnit
ĠadmiraÃ§Ã£o
Ġatualmente
dire
ĠIntro
ĠaÃ§Ãºcar
ĠElimin
ĠTransportation
Ġapost
Ġgenerate
ĠPapa
Ġpreserv
ĠArgentine
protection
Ġentrei
olos
ĠME
Ġdormia
Ġescuras
Ġesfreg
grÃ¡
ĠUpper
Ġwindows
ĠPrincipal
Nor
Ã©ticos
Ġextremo
sop
delete
Ġretornar
after
irt
ĠAos
Ġduma
Ġinsult
Ġsolta
Ġproducing
Ġsegui
Ġreligiosa
unction
Life
Ġindivid
idae
ĠLP
ĠGuardian
Ġadultos
ficientes
Ġsentisse
ramento
ustos
ĠOrthodox
ismos
Ġcrav
anor
ĠdestruiÃ§Ã£o
Ġcolher
oras
Ġfactors
iah
father
Thanks
Ġsubmission
Ġvoting
ĠSeveral
ĠCob
ĠcÃ¢mara
ï¼
Ġreturns
Ġdispla
MC
ĠdiferenÃ§as
Ġplanet
last
conte
Ġmochila
ĠmÃŃnima
ĠcalÃ§ada
RC
star
ĠArchive
Ġpesquisas
Ġmotiva
uru
Ġprojetos
Ġnavig
Ġthread
Ġacred
Ġdesviou
ĠInfelizmente
Me
Ġatirar
ĠIda
Ġessay
Je
ĠInst
Ġexaminar
Ġvivem
Ã¡mos
bey
ĠTrophy
Ġdispers
Ġjoelho
etta
Sing
Ġchron
Ġgreatest
Ġflying
Ġquarta
ĠfrÃ¡gil
Ã¢mera
Ġrevelou
ĠCy
ĠInit
Ġmobile
tral
Ġinterna
iographical
Ġsaberia
ĠincÃªnd
Ġpictures
Ġinund
Ġchallenge
Ġorelhas
ĠRangers
Ġacknow
ĠHerman
Ġdevice
Ġcrown
ĠOlÃ¡
ĠSerg
ĠWang
ĠDylan
Ġbancos
Ġshift
ĠWag
Ġprize
Ġadapted
ĠFinnish
ĠMPs
wig
Ġregiment
Ġproven
ĠcrÃ©dito
sk
ipes
Ġternura
Ġphone
Ġcobrir
Ġsetor
ĠJama
Ġsalt
ĠCore
Ġevolution
ĠLic
Ġapplications
Ġsteam
ĠWing
Ġexpression
ĠFood
ĠAmbos
ĠAri
ĠSi
elhi
hibition
ĠSent
ĠJeremy
Ġron
Ġtratado
Ġindicates
ĠStage
Ġreunir
iate
manuel
ĠÃ¢ng
ĠPes
ĠDoes
orig
inten
ĠreuniÃµes
Ġgarotos
Ġassign
iper
Hz
Ġremin
Ġfis
Ġexcell
Ġansiosa
ĠKirk
Ġexpect
ournals
Ġdebr
ingly
ĠBorough
Ġanniversary
gressive
Ġroads
ĠNevada
Ġmode
ĠFreedom
Ġzomb
Ġexac
rant
Ġtechniques
Ġdepende
ĠBuenos
Har
Ġtack
Ġfant
ĠPatri
ĠPare
Ġbatida
ĠMate
ĠCav
ĠnaÃ§Ã£o
ĠdemÃ´nio
Ġdiscrim
Ġdistributed
Ġearliest
Ġgod
olly
bean
Ġdamaged
Ġmeasures
ournaments
Japan
ÃŃso
ĠRedirects
Ġvictims
Ã§ois
ĠPapai
ĠcÃ¢
ĠHob
Ġhosped
Ġfingir
Ġvideos
Ġpretend
Ġentendi
acher
Ġtemperatura
ĠperdÃ£o
ĠAncient
Ġrecordings
ĠAdrian
ĠmilhÃ£o
ĠFacebook
ĠmunicÃŃpio
ĠIN
ĠcerimÃ´nia
Ġcavalheiro
Ġquiet
Ġrailroad
Ġdepth
pen
Ġfrac
ĠpÃ¡lida
ĠConsider
rus
Ġignorar
imedia
Ġpossivelmente
Ġcobertas
ĠElectric
Ġexplicit
orton
Ġlama
Ġpalmas
Ġlenta
ĠcÃ¢mera
Ġfeminina
ĠNewton
Ġpublisher
ĠTak
ĠBlues
ythm
Ġidos
ĠRfC
ĠLion
wiki
Ġconvencido
Ġwhatever
Åį
Ġcriadas
ĠMaced
Ġencora
ĠinvisÃŃvel
Ġsobren
ugs
ĠnÃ¡
ĠGeoff
Ġhumanas
Ġataques
Ġimens
ĠEspecial
Ġdeitada
Ġmemor
ĠBomb
Ġrelative
Ġzumb
ĠTheater
ĠUrban
ĠcrenÃ§a
curs
ĠLot
Ġreprim
Ġdated
ĠreputaÃ§Ã£o
Ġpuxar
ĠTag
ĠKer
Ġdespertar
Ġpointed
ĠProtest
Ġinsinu
Ġtrusted
Ġib
Ġquantas
aneous
ĠlanÃ§amento
Ġmodos
ĠengraÃ§ado
ĠuniÃ£o
ĠrecepÃ§Ã£o
insula
ĠPerson
ĠMall
cht
oles
Ġbrisa
rior
ĠendereÃ§o
Ġlib
ĠCyp
alleng
Ġacol
ĠFlight
Ġunsourced
ĠFaith
Ġadvantage
ĠFique
ezas
ĠSeven
Ġglo
ĠLuther
Ġparticipants
Ġbrinqu
ĠAer
Ġprovincial
Ġchin
Ġtampouco
ĠlaboratÃ³rio
ĠPlayers
Ġfairly
Ġbilhete
Ġappeal
Ġesgot
Ġentrega
Ġcalmamente
ĠEncon
Ġfizemos
ĠesperanÃ§as
ĠDefence
ĠGraÃ§as
Ġtraseiro
ĠBarn
Ġalhe
chos
maÃ§Ã£o
Ġclaiming
Ġexisted
alhar
Ġtrust
Ġdecade
Ġowners
ĠÃįndia
rano
Ġcharged
Ġbriga
icaÃ§Ãµes
ĠVancouver
ĠAms
ĠReed
quest
Ġbenefic
pub
Ġalimentar
ĠIT
ĠSmall
Ġtreated
ĠalcanÃ§ou
Ġdifferences
Ġperguntava
Ġsignal
ĠCold
atie
rat
George
Ġsuperiores
Ġrefuge
Ġdocumento
Ġajust
Ġenvelope
perg
Ġshouldn
ĠLower
ĠÃ©ramos
ĠMother
ĠOliveira
Europe
Ġaproxima
Source
Ġongoing
ĠOK
ĠliÃ§Ã£o
Ġrepet
Ġqualifying
ĠChel
ĠpulmÃµes
ĠHad
Ġestad
izer
Ġchegara
ĠFalls
Ġatre
ĠBris
ĠDona
Ġax
ĠOrganization
Ġoperate
Ġelsewhere
ĠLud
braska
Ġmaus
ĠGeography
ĠEllen
Ġorganisation
ĠHora
ÃŃficos
reo
size
Ġelectronic
jamos
Ġpater
LC
Ġresidence
Ġevang
ĠDese
ĠJen
Ġproducers
ĠSerbia
Ġolhe
ĠBuffalo
ĠRead
Ġexplanation
Ġvoltasse
Ġira
ĠEli
ĠSomos
ĠpÃ¡ssaros
mina
Robert
Description
ĠeconÃ´mica
RE
Ġpremi
Ġpreparando
Ã©us
Ġmanual
ĠPay
Ġgrant
ĠAuthority
jpg
ĠAzerbai
Ġvestida
ĠStorm
Ġprepared
ĠAdri
ughters
Ġpromotional
ĠIranian
ĠCoun
Ġrecebe
Ġembal
Ġpermanente
render
Ġestr
cop
idential
ĠRiley
Ġcun
Ġrecusou
ĠConte
Ġblusa
Ġchegasse
ĠGro
ĠWind
Ġenlou
iced
ĠespetÃ¡culo
Ã¡culos
Ġbondade
cool
text
AC
ĠprofissÃ£o
Ġexato
onÃªs
Ġsentences
Ġprimavera
Ġmilagre
Ġarc
Ġquebra
ĠTrev
keley
Ġarru
hetic
Rich
Ġgrita
Ġentries
Ġbaby
Ġuniversities
Ġaconselh
ĠhÃ³sped
urre
Ġdemorou
Mon
Ġadvertising
Ġacad
cil
ĠHelp
Ġirres
Ã©rito
Ġagg
Ġtries
Ġattached
Ġpatr
Ġdrag
Ã³rnia
Ġreceio
Ġnotor
ĠLiam
enter
Ġinvolvement
alg
Oppose
Ġacabei
Ġdivisions
ĠContemporary
Ġfly
Ġfantasma
ĠIa
Ġvesti
Ġacrescentar
ĠHorn
Ġdesistir
Ġcasou
ymphony
Ġvom
ĠestratÃ©gia
ĠConvention
ĠAlaska
miral
GA
Ġbispo
Ġvisible
ĠridÃŃculo
Ġleito
Ġguar
ĠEncont
ĠoperaÃ§Ãµes
ĠStill
Ġchain
ĠJerusalem
Ġjournalists
Ġsanto
Ġsurvey
ĠYale
Ġidentify
erno
Ġcool
Ġcoloquei
ĠMean
ĠTigers
Ġserial
ĠCov
Ġhabilidades
ĠtÃ©cnicas
Ġneighborhood
Ġdeteve
ĠCapit
Ġrevolucion
utado
Ġalerta
Ġbatia
Ġreleg
merce
Ġoceano
Ġhabitat
Ġsurvived
taque
Ġnegoc
Ġstood
Ġvosso
%.
Ġhelps
Ġoferece
ĠFaÃ§a
fac
ĠBened
Ġlevaria
Ġinteraction
Ġvapor
ĠintenÃ§Ãµes
Ġtelhado
))
ĠPep
Ġagricultural
door
Ġcriticized
tilha
Ġcoop
ĠKyle
Ġwikis
ĠafirmaÃ§Ã£o
ĠtransformaÃ§Ã£o
Ġfios
Ġconsiderava
Ġinterm
ĠOriente
Ġdesprezo
Ġhones
ĠdiscÃŃp
Ã³ricos
Ġinterrom
Ġdose
Ġremoval
Ġreader
Ġproperly
Ġprojec
Ġminimum
ĠhorÃ¡rio
Ġhelping
Ġvermelhas
Ġlojas
ĠSO
ĠGall
odore
urno
ĠEgyptian
bf
Ġadvert
itÃ©rio
Ġguia
Ġposicion
CapÃŃtulo
ĠSaints
Ġobviously
Ġatorment
film
Ġcru
ĠHab
ĠBeg
Ġfotografias
Ġdisposta
Ġcostumes
ĠJudge
lington
Ġsequence
Ġarred
ĠPain
Aut
Ġpriest
Leg
qual
ĠDelhi
Ġgraduate
orse
Ġaddressed
ĠJesse
enson
Ġinhabitants
Ġseio
Ġretom
Ġmembership
ĠconcentraÃ§Ã£o
hot
ĠSection
Ġtan
Ġsouber
oved
Ġprocesses
Ġfalls
Ġinteressa
ĠVejo
Ġrelato
Ġesva
HO
that
ĠPrecisava
ĠJefferson
Ġroutes
Ġham
Ġphrase
ĠconsideraÃ§Ã£o
ĠMathema
Ġgaragem
Ġdrivers
Ġpercebido
Ġrelut
Ġnesses
Ġpractices
ĠpeÃ§o
Ġala
Ġenlouqu
pia
Ġpatri
Ġcomprimento
Ġsobress
iege
Ġescreve
Ġresponsibility
pas
ĠMilan
Ġassistente
ĠFine
Ġnascido
du
ĠOlivia
Ġrecolh
Ġspr
Ġactivist
Ġstruck
ĠEstes
Ġnominator
Ġrapidez
Ġconstrang
aps
Ġdelivered
Ġ.*
ĠNicole
Ġrica
ĠIndustrial
ĠSprings
Ġpalha
Ġmatters
Ġvampiro
ĠEns
Ġtank
Ġfrustr
ĠCathedral
Ġcompreendeu
Reception
Ġembaix
Ġile
mid
Ġcompreh
ĠexposiÃ§Ã£o
Ġreflexo
ĠWatson
ĠGregory
Ġrepresents
Ġseventh
Ġtemer
ĠFerr
ĠcompetiÃ§Ã£o
ĠmÃ©todos
Ġphotos
Ġmagro
Ġovos
Ġdeitou
aman
Ġshell
Ġampla
ulu
liga
Ġtenso
Ġconfirmou
Ġpiscina
Ðµ
Ġfranchise
Ġconceitos
ĠCorre
ĠMarcel
Ġruins
uoso
Ġarrancar
Ġcloser
Ġsynd
Ġanteriormente
ĠClinton
ĠÃªx
udia
ullivan
Ġpousou
ige
Ġpagamento
utt
Ġmotiv
ĠIor
Ġcolina
Ġgenu
Ġgro
ĠGas
Ġprotein
ĠeliminaÃ§Ã£o
fess
ĠMind
ĠbalanÃ§a
Ġretro
Ã¢nio
Ġinsign
BOT
Ġfrases
Ġsuitable
Ġcaverna
Ġmercador
Ġenvolvido
Ġculpado
mel
Ġbolo
ĠRoll
ĠPropose
Ġsensual
vanni
Ġpratele
Station
ĠlÃŃnguas
ĠKon
Out
Ġrevers
ĠdefiniÃ§Ã£o
ĠLanka
irÃ£o
Ġownership
Ġcurv
ĠTi
Ġemail
ĠNuma
Ġformando
country
ĠCompanies
Ġmerely
onomia
Ġcycle
ĠNina
orrendo
Ġchines
ĠUnit
ĠType
Edit
ĠBM
Ġcompra
osh
Å¡
Link
boards
rate
teria
Ġamplo
Ġcircumst
Ġbeijando
Ġphen
ĠHockey
Ġchoose
Ġreme
âļ
Ġregistro
ĠAntÃ³nio
Ġtronco
ctors
ĠRi
ĠvÃ©s
Ġdezesse
Ġbudget
Ġterrest
ĠPrefect
Ġacen
ĠProme
Ġinspir
ighted
ĠModel
ĠDisco
Ġcerc
iane
ĠShah
Ġcoc
ĠMiles
chÃ£o
UT
ĠNigeria
ĠdanÃ§
Ġdesd
ĠmÃºsicas
ĠmÃ©dica
ĠBristol
Ã³rter
deio
ĠKam
xic
ticle
Ġabsoluto
Ġcobertura
incinna
incinnati
ĠPolÃŃcia
Ġrecuou
olds
ĠinstituiÃ§Ã£o
ĠlÃŃderes
ipse
fiction
Ġoccupation
ÃĹ
Cam
itutes
Ġgestos
Ġshif
ĠRebecca
pur
Ã¡p
arquia
rine
erapy
UK
Ġsinging
Ġsurpreendeu
ĠSpeed
Ġachiev
Ġferoz
ĠLen
ĠcolÃ©gio
Ġalternativa
Ġlimpa
Ġagarrar
Ġrose
ulha
uliar
riÃ§Ãµes
Ġduty
Ġpassengers
rosoft
ĠCalifÃ³rnia
Ġbiggest
amic
Ġhur
Ġhelpful
ĠDante
Ġtransporte
Ġdesigns
uscamente
Ġchalleng
Ġteen
ĠMira
Ġtamb
Ġsatisfeita
ĠMadame
Ġconsiste
Ġeurope
Ġteremos
Ġpoderosa
Ġespont
cm
Ġespanhol
Ġprender
ĠrepresentaÃ§Ã£o
Ġmeters
Ġaproximadamente
Ġquadr
ĠMis
Ġmarine
Ġbandeja
ĠcÃ´m
ĠScore
enzo
Ġartistic
Ġplataforma
ĠobrigaÃ§Ã£o
Ġtemporary
Ġsevere
Michael
ĠAcademia
ĠProp
Ġocupada
Ġtournaments
Ġcourts
Ġdriving
ĠÃ¡lcool
Ġquentes
iÃ¡rio
ĠThu
ĠdetrÃ¡s
ĠsessÃ£o
Ġquint
Ġdoutrina
ĠconhecÃª
ĠdÃ©
enco
ĠconcepÃ§Ã£o
ĠconexÃ£o
Ġranking
ĠChairman
Ġ"#
ĠFif
Ġgoods
ranean
ĠilusÃ£o
Ġhundreds
ĠCR
Ġmorava
ĠSay
Ġabria
ĠIssue
Ġsozinhos
Ġinsu
ussian
ĠRodrigo
Born
Ġpainters
Ġterei
DO
ĠÃģl
orporated
org
ĠSenator
idan
ĠaÃ©
Ãµem
Ġexperimental
Ġpossuem
ierra
Ġsabes
Ġmoto
Ġescri
Ġmagazines
ĠMong
Ġenvolvendo
profit
inee
ĠTitle
Ġcompanheira
Ġtownship
Ġformally
ĠMai
Ġbehaviour
lop
Ġfresh
Ġrenew
ĠGay
ĠMinas
Ġestariam
ĠStanford
ski
ĠDenver
ĠPaula
Ġperdi
ĠBron
Ġenviado
ĠNap
My
Ġcredited
Ġnessas
ĠNC
Ġcortinas
Ġvenues
Ġatriz
ĠpÃªnis
ĠLop
Ġtomava
rolet
Ġdesa
Ġbosque
Ġimaginou
ĠNiger
ju
Ġclassic
Ġbloco
Ġadmins
ĠtÃŃtulos
Ġprisoners
ĠEdgar
prise
ÃŃzes
Ġjudges
Ġodiava
ĠRecip
ĠTrata
Ġrend
raram
Results
Ġacompanhado
Ġprostitu
ĠHat
ĠFriday
Ġreferring
Ġtemas
ĠDocument
Ġboys
ÃŃna
ĠJung
Ġexemplos
Ġadjacent
Ġ),
Ġrocha
Ġnortheast
ĠAdol
ĠanÃºnc
Ġabrigo
Ġquebrado
Ġfino
Ġfestiv
ĠDays
Ġwarring
ĠView
ums
Ġraise
Ġafrican
ĠManager
ĠHolmes
nell
ĠPresidente
ĠFuture
Ġvoltaria
Ġreviewer
ĠmandÃŃb
ĠAleg
ĠmemÃ³rias
RR
Ġenab
ĠFather
Ġoppose
ĠKnights
Ġbrasileiros
itaram
Ġtesting
ĠpÃµe
Ġpurchase
Ġlam
annels
ensÃŃvel
ĠWikiped
Ġquote
Ġdisparou
Ġmissed
ĠTorn
Ġunders
ĠsÃ³s
Ġfalo
Ġstress
ĠinvÃ©s
itÃ³rio
hu
Ġcarteira
Ġterminado
Ġillegal
Ġnaz
ĠAltern
Ġrez
Alex
ĠKey
bishop
Ġrodas
Ġanyway
ĠDiamond
who
ĠBour
Ġskin
Ġmouth
ĠHerald
Ã¢nicos
ĠComun
Ġviam
break
here
Ġreclam
Ġvirei
Ġpermission
Ġshor
ĠAcredito
Ġwithdraw
ĠAugusto
ĠmÃ¡quinas
ĠmÃ³veis
Ġheads
Ġconvidado
ĠAbu
Ġwed
Ġscholar
Ġingleses
Ġelite
Ġreplacement
ĠNebraska
ĠBed
Ġcortou
ĠEdwards
Ġileg
Ġtinta
ĠOutstanding
ĠSullivan
ĠresidÃªncia
Ġsend
ĠTinham
ĠPira
Ġathletes
ĠHawaii
Ġlegislation
Ġcolour
ĠCaribbean
righ
DP
Ġrecost
ĠMinor
Ġdual
Ġsuspeita
Ġinspira
Ġvary
ĠGilbert
Ġcosts
ĠavaliaÃ§Ã£o
ĠUpon
ĠSÃ©rie
Ãºcle
Ġdefensive
ĠTodd
Ġwave
Season
ĠLux
likely
Ġimportar
Ġbuf
Ġforem
ĠprÃ³ximas
!âĢĵ
Ġcapit
Ġafog
ĠVenezuela
Ġinstitution
Ġretained
She
ĠFootballers
Ġseparated
cedes
Ġerguendo
ĠLate
ĠIncl
Ġrouca
riors
Ġmergulh
ĠPasse
Ġcela
ĠNR
Ġbruscamente
Ġdetetive
Ġsample
ilst
tite
ĠestratÃ©g
ĠLeonard
ĠexecuÃ§Ã£o
ĠâĤ
Ġpromp
Ġmoeda
ogy
Ġtrouble
Ġabrig
GE
ĠPradesh
ĠDessa
ĠAfghanistan
oy
Ġalmof
Ġimpaciente
Ġpedia
Ġtruth
Ġcogn
ĠdisponÃŃvel
Ġcurr
brew
ĠdimensÃ£o
owell
ĠSR
Bar
oples
ĠMethod
ande
Dan
Ġpeculiar
Ġdetect
ÃŃgio
Ġcarrying
ĠDerek
ĠMolly
Ġcabec
ĠHave
Ġfebre
Ġtransl
bilidade
ĠRural
ĠUrugu
Ġwaters
Ġsurpreend
ĠAstr
ĠReform
ĠJustiÃ§a
ortunately
Ġfed
omie
adeiro
Bel
ĠVoice
Ġpertencia
Ġrecordar
ĠIorque
ĠsacrifÃŃcio
ĠcomeÃ§am
iven
Ġempregados
Ġdeprod
Ġservia
ĠElementary
Ġselling
Ġindicated
Ġdesesperada
ĠFreud
IM
pt
ĠWallace
Ġwrest
Ġfeiti
Ġsuff
Ġbroadcas
ĠBahia
Ġpersonally
ĠEllis
ĠcomparaÃ§Ã£o
Ġanjos
Ã¡gina
ĠHeavy
original
ĠTrinity
Ġpainted
ikh
Ġterminal
Ġamado
Ġsleep
Ġexpectativa
Ġconsul
Ġchances
ĠSony
}\
riamente
iamento
Ġgrego
Ġvais
Ġagenda
gom
Ġgenre
ĠVerm
When
Ġpassageiros
Ã¢ntica
ĠMagic
Pres
Week
ĠAndrea
Ġocupar
folk
Ġrusso
Ġsecund
Ġdebuted
ĠComputer
Ġaroma
Ġtransition
Ġadorava
Ġwonder
Ġframe
Ġpequen
Ġheritage
Ġexecuted
Ġquadril
ĠVila
Ġaven
mental
Ġesperado
Ġaccompanied
ĠÃ¢mb
agree
Ġrealizada
dist
ĠRand
Ġsilencioso
Ġabriram
bsites
antine
ĠResol
ĠPhilippine
ĠZone
English
ripts
Ġrout
ori
inada
chang
ĠDeb
ĠBrasileira
Ġassumiu
tagem
Ġtorne
Ġpiloto
Ġexige
lon
Ġdirigia
Ġabsurdo
ĠTas
trar
ĠCatarina
tick
ÃŃaco
ĠMond
Ġhistorians
Ġmoderno
Ġapaixonada
ĠPut
ĠSystems
ĠDela
ĠcivilizaÃ§Ã£o
Ġaccom
ĠBA
Ġinvestment
ombo
ashi
Ġchamados
ĠRogers
Ġpuxa
Ġsupports
Ġassustado
run
Ġacontecera
Ġmedicina
Ġapanhar
Ġdating
Ġnecessariamente
Ġconfigura
Ġinfobox
Ġouvira
Ġrespira
Ġconseguem
ĠFormula
Ġcontado
ĠWebsite
ĠposiÃ§Ãµes
Ġafasta
ĠParish
ĠFleet
ĠEsqu
Ġsombrio
Ġpoema
ibly
aching
Ġfired
Ġentendimento
Ġoffering
ayan
ÃŃficas
Ġpesadelo
uced
castle
Ġescorre
ĠThor
Ġguideline
lf
ĠCarlo
ustries
Ġentregue
Ġlad
Ġdignidade
Ġstages
ĠVoltou
ĠWeekly
ortes
ĠUnc
gÃ£os
Ġconstitui
rais
ĠÃ³leo
cre
ĠAmbassador
Ġqualidades
Ġcla
ĠDentro
Ġenxergar
Ġachieve
ĠraÃŃzes
Ġbusinesses
Ġformato
Ġpercorrer
Ġfilled
ĠvÃ¡l
Ġaves
ĠTribunal
visor
Ġplain
Ġmentir
Ġtornara
Ġconhecimentos
adinha
ĠAmar
Ġaccommod
chae
Ġdefine
rinho
Ġmanch
Ġsuburb
Rele
Ġcod
uranÃ§a
ĠAst
ĠDragon
Ġrestaurant
ĠGiants
Ġconfront
Ġnotably
Ġpian
Ġwounded
Ġsorria
Time
Ġscheme
Notable
ĠDrew
ĠsugestÃ£o
Ġapavor
Group
ĠBund
Ġstores
remo
Ġquarte
ĠSomente
Name
Ġamanhe
ĠemergÃªncia
Phil
wall
Ġfazemos
ĠvotaÃ§Ã£o
Ġremar
Ġut
ĠGhost
Ġfirmemente
Ġdiam
Ġdream
ĠMaxim
ĠDF
ifying
ĠKal
ĠDouble
ĠCaso
ĠSyria
ĠcidadÃ£os
Ġcouldn
ĠMia
ĠviÃºva
Ġreno
ĠconstruÃŃdo
Ġbomba
ĠTab
ĠTue
Ġglor
Ġpse
fil
Ġcite
ymnas
ĠRus
Ġrodo
ĠJoel
Ġfalsa
entino
*"
ighters
Ã³tico
Ġintimidade
Ġmate
omonitor
rÃ³
leyball
writers
Ġjar
Ġfale
Ġjournals
ĠMarian
Ġacordado
ĠficÃ§Ã£o
ĠSloven
Ġcasada
Â«
ĠTempor
ĠLan
ĠRena
ĠLeft
ĠAnomie
ĠShaw
uga
Ġjogadores
ĠprÃªmio
ĠaprovaÃ§Ã£o
Ġdefinitely
Ġstret
Ġimpressionante
Ã³rdia
Ġblind
ĠPerceb
yson
Ġtornoz
ĠMinhas
ĠidÃªn
Ġdeixasse
ĠAconte
Ġoperates
Ġrepresentation
itime
ĠCC
Ġconseguira
Ġarranged
Ġfuz
current
Ġshall
,.
Ġorchestra
Ġcrash
ĠBengal
Ġstats
iscal
iaram
Ġcano
Ġom
Ġcaminhava
Ġandou
Ġtornam
ĠStefan
verty
eing
Ġpopularity
ĠAviation
Ġanswers
Ġmarks
Ġnorthwest
Ġhosts
Ġcollections
Ġvoar
Ġdegrees
âĢĻ,
Ġocorrido
tistical
Ġreplacing
Ġrotina
Ġpermanece
ĠpÃºblicos
px
ĠPon
Trans
Ġdesfrut
Ġaccus
Ġrestos
ĠMunicipality
Ġtone
ĠTs
Ġmora
aios
Ġderiva
Ġinfant
Ġvist
ĠLions
tÃ¡
Ġencarando
rimÃ´nio
Ġsourcing
Ġaje
Ġencher
ĠGoth
arca
Ġescure
Sus
ĠGlobo
ĠEditor
ĠScreen
link
Ġsuicide
Ġsofreu
fora
Ġneighbour
ĠUnido
lishments
Ġexception
Ġthick
ĠSuperior
ĠHorse
ĠPereira
Ġlanding
ĠMicrosoft
Ġheaded
ĠcÃ©us
Ġopinions
Ġbrilhando
ĠHarvey
Ã©ric
Ġsargento
Ġdesviar
Ġpropriedades
Ġcourses
Ġconquista
ĠMarina
Ġblan
astro
Ġspirit
Ġacendeu
Ġsessenta
Ġjornada
Ġpercebo
ĠRainha
ĠWalt
oked
Ġhat
ĠMF
Ġdeproded
Ġunusual
oito
ĠlÃª
Ġpav
ĠFlag
Ġgraves
Ġdesv
Ġciting
ouncill
Ġabandonado
ĠSold
Ġsax
ĠorientaÃ§Ã£o
ĠCe
Ġprocl
ĠPM
nova
Ġmodelos
aired
Ġderrota
Ġversus
ĠrepÃ³rter
Ġconvicted
Ġdevor
Ġdescobert
ĠMartha
intenance
ĠAtra
Ġcapable
Ġmeias
Ġmining
Ġcontinuing
osÃ³
Ġnormally
ĠSocialist
Ġconcep
Ġmarcado
lys
lac
Ġjuntou
ĠArabic
Ġroubar
ĠButler
Ġdezenas
Ġouve
ĠTech
Ġatrap
ĠjuÃŃzo
igration
osing
Ġstreets
IP
Ġcavaleiros
lick
Ġseparar
ĠSex
ĠremÃ©dio
ibil
Ġhill
fi
Ġdesprez
Ġtheater
ĠÃ¢n
Ġsexy
ĠInves
Ġunsuccess
Ġdenied
Ġattributed
ĠRealmente
disambiguation
igible
Ġolharam
Ġcientistas
ĠChevrolet
==;
Ġrifle
Ġguerreiro
ĠfÃ¡brica
ĠChapter
ĠRita
Ġimprovis
Ġbold
ĠDN
Ġvalley
DS
Ġquadros
ĠNaquela
ĠCrow
ĠMaurice
Ġapproval
ĠBerkeley
Yes
ÃŃsticas
alled
Ġdisagree
ĠBlood
Ġveias
Ġconhecemos
.[
Ġresidential
Ġcongress
uckland
ĠÃ³rgÃ£os
Ġmira
Ġprisioneiros
Ġmonarch
Geography
ĠArnold
toon
inct
isan
Ġbrick
ĠStudy
ĠLA
rÃ©s
Ġsudden
Ġvenced
loe
Â».
closed
Ġagach
ĠespaÃ§os
izadas
celand
Ġcrop
ĠestÃºpido
Ġagarrando
Ġcontribute
Ġeffectively
tÃ£o
Ġelect
buc
bane
Ġdetalhe
Ġcomprim
Ġgrosso
Ġpsiqu
Ġcomposers
ĠHamb
ĠpublicaÃ§Ã£o
Ġviolin
ĠAy
ĠEvan
jes
Ġretrieved
Ġsrta
Ġcampainha
tate
Ġproof
ĠseparaÃ§Ã£o
vente
Ġclassific
ĠtÃ©r
Ġtrazido
Ġintegral
ĠChristianity
ĠMontana
Ġesqueceu
ĠLear
Ġ('
So
Ġbeach
Ġdisappear
Ġpreferia
ĠCamb
ĠAgu
ĠGrade
ĠLeop
adio
Ġrowspan
Ġrevela
ao
ĠSally
Ġfluxo
ĠSide
Ġmassive
Ġdevices
ĠFlow
Ġconstant
Ġwides
ĠprovÃŃncia
Ġvisl
Ġpesar
Ġshopping
ĠBrasileiro
Ġvirtual
Ġcomprido
Ġerguer
riptions
isms
Ġseek
Ġvenue
Ġmaintenance
ĠlÃ¢mp
ĠDeuts
ĠCincinnati
unting
Ġguil
,:
Lou
Ġbocado
Ġcobertos
Ġrestava
Ġsilenciosa
anga
Ġcoste
Ġpossibility
Ġencolh
ĠsaudÃ¡vel
Ġvemos
ussion
isco
ĠatraÃ§Ã£o
sec
ĠWikimedia
Ġenvolveu
Ġcompilation
Ġrevistas
Ġstem
High
Ġroughly
written
tre
Ġguerreiros
Ġbattles
ĠLac
Ġsuficientes
ĠIgn
teries
Ġcorrentes
ĠAllan
ĠdragÃ£o
ĠAnnual
Ġprosec
Ġreputation
Ġappearing
ĠKos
fted
Ġmobil
Ġusern
Ġprecon
ĠComedy
ĠElection
iency
Ġderre
Ġacham
ĠPrivate
Ġperde
Ġaterror
Ġofegante
uch
Ġpiores
Ġcoorden
Ġcolleges
eios
Ġstorage
ĠGiovanni
ÃŃsque
Ġmaldita
Ġprovocar
vocÃª
Ġbuy
Ġrooms
ĠAustraliaCategory
Ġencarn
Ġâľ
ĠVirg
EE
Ġcontei
ĠInstead
{\
Ġfortemente
Ġrecome
ĠKatie
Ã©rias
Ġfarei
ĠpreocupaÃ§Ãµes
Ġwaste
Ġprotests
Ġromantic
Ġvision
regation
Ġfuriosa
Ġextent
Ġculto
Ġpacote
Ġprinciple
ginal
Ġfinals
Ġcarregando
Ġretornou
augu
Ġcenas
Ġneur
Ġkg
ĠChester
Ġimpuls
ĠAlberta
ĠHolland
iscell
ĠAmanhÃ£
Ġnovidade
DB
.Â»
Ġapertar
NO
Ġcheias
Ġsaudade
master
ravo
Ġprud
Ġconspira
ĠMorning
ĠNag
Ġbolsos
Ġambient
ĠÃŃndios
inÃ¡rio
ĠNepal
ĠCommunications
Ġcabine
Ġsuggestions
Ġtocava
Ġwelcome
Ãºrio
gomery
Liga
ĠBroadcasting
Ġtail
ĠÃłquele
ĠTreas
Ġrepeatedly
ĠFemale
Ġinterno
Ġtied
Ġwait
inding
Ġambul
ĠPetro
Ġirritada
ocos
cr
Ġstrategy
ĠUg
ĠDoutor
ĠtÃºnel
ĠEducaÃ§Ã£o
Ġnarrativa
IG
ĠhistÃ³rica
Ġmanob
Ġadaptation
Ġdiscover
Ġacariciou
Ġlido
Ġcordas
ĠBrid
Ġindec
Ġchamp
alid
Ġestejam
emat
gi
ĠAssistant
panic
Ġmanufac
Ġsuggestion
Ġarriscar
itte
Ġincidents
akers
Ġtrabalhou
Ġdeixam
Ġdesempenh
olÃ³gicos
laimed
Ġperpet
rogen
Ġovers
ĠBennett
ffee
By
ĠPrimary
Ġirrelev
Ġdecidi
ĠLock
alymp
Ġmodified
Ġpresas
ĠReturn
Ġescritos
nan
ĠlenÃ§Ã³is
uki
lane
ĠGav
amor
Some
ffield
ĠIndians
Ġentrado
Ġsujo
Ġjudicial
ĠdemÃ´nios
ĠRey
ĠSerge
Ġexperiences
Ġparliamentary
Ġclick
ĠCampa
Ġimprovement
Ġlanterna
Ġclassified
ĠÃĵtimo
Ġadequado
Ġfogueira
Ġplaca
Ġrabo
ĠBrew
ĠGam
ĠPassou
Ã©ns
Ġshoot
à¥
ĠFlorence
Ġinstruments
date
Ġocidental
ĠTrail
Ġvoltas
Ġaceita
Ġmontar
ĠperfeiÃ§Ã£o
Ġdoubles
Ġhospit
ĠcompaixÃ£o
ĠacadÃªm
à¦
Ġministers
Ġdoces
uman
ĠPequ
ĠinevitÃ¡vel
Ġnegras
Ġcrossing
ĠLex
ĠcoleÃ§Ã£o
ĠVerdade
Ġpossamos
ĠWells
Ġsubordin
Ġmordeu
cera
âĢİ
matic
Ġeurop
Ġseemed
ĠKurt
LE
ĠSaudi
Ġevening
Ġventre
ĠPio
ework
Ġarrival
ĠAhmed
ĠcontÃ©m
ĠTol
annon
Ġesfregou
ĠWikipÃ©dia
ĠCarp
Ġpodes
ĠbeijÃ¡
ĠPadre
jab
Ġvestindo
Ġsurpreendente
Ġgaveta
Ġespl
revia
ĠEgito
oh
neth
iolet
Ġajudando
ĠFlo
Ġstarred
Ġspeaking
ĠcaÃŃa
ĠArmenian
Ġespecific
ĠtrÃ¡
ĠcÃ©lulas
Ġcum
Ġcomprou
Ġestudou
Ġterritories
Ġraro
ĠWor
Ġcricketers
Ġecl
ĠcanÃ§Ãµes
ĠAnomieBOT
ĠÃłqu
ulman
Ġiner
ĠCampaign
furt
Ġcoroa
tte
ĠShang
ĠmÃ£es
ĠAbraham
Ġestranh
Ġdeem
Min
Ġsnow
Ġrunner
ĠavanÃ§ar
Ġsentira
ĠNicola
borne
Ġpreparada
Ġrecommended
Ġseed
ĠColombia
ancell
Ġcontested
ĠfilosÃ³
Ġmovements
Ver
ĠcaracterÃŃstica
ĠfrustraÃ§Ã£o
ĠcombinaÃ§Ã£o
Ġcircumstances
ĠopiniÃµes
Ġinput
astery
ĠTake
ĠAnglo
Ġwings
ĠheranÃ§a
ĠMediterranean
Ġconduziu
iara
Ġchannels
Ġtheor
Ġprosper
fied
Ġperfil
ĠSax
Over
Ġsubia
Ġfatores
Ġformado
ĠmansÃ£o
Ġlia
Ġsexuais
Ġanime
Ã§aram
Ġcorredores
Ġgolf
Ġappointment
Ġgla
)*"
FM
entava
angular
Ġencyclopedic
Spe
izations
Ġprecisavam
Ġtatu
gaÃ§Ãµes
ĠArtillery
Ã«
ĠuÃŃsque
ĠSophia
ĠProductions
tawa
Ġevidentemente
Ġdesesperadamente
Ġdourado
Ġeternidade
ĠconvicÃ§Ã£o
ĠinÃºmeras
Ġqueres
asure
Ġconsidera
Ġrosas
Ġparallel
ĠAG
Ġcompare
Ġrelation
amps
itores
ĠVictorian
ĠEc
ĠIndustry
ĠPrice
ĠterÃ£o
Ġconcess
Ġjourney
ĠEagle
helm
ĠChan
ĠcÃŃrculos
ĠhÃ¡bitos
ĠResults
Ġconclusion
Ġdescanso
isas
ĠParalymp
ĠgÃ¡s
ĠpsÃŃqu
ocar
Ġmarcada
Ġinterpretation
ĠErnest
Ġtento
Ġelectoral
Ġcards
Ġsockpuppets
Ġaprendiz
ĠcaÃŃram
Ġcommented
Ġdisciplina
Ġsurviv
Ġacent
ĠouÃ§o
ĠDiss
Ġjurisdic
Ġnations
ĠMediaWiki
Ġduties
London
ĠcaminhÃ£o
Ġindex
ĠAde
uei
Ġchoro
ĠObama
ĠCorte
Ġtentativas
Ġcamera
Ġviveu
Ġdistinguir
Ġaten
mathbf
Ġsuccessor
ĠGlen
Ġbusinessman
Ġteorias
ĠauxÃŃlio
Ġtagged
Ġreligioso
Ġassinal
ĠtÃ©cnico
ĠBeijing
Ġfracasso
Ġcoastal
Ġconvidou
omia
ĠPi
ĠTentei
Ġwidespread
Ġtortura
Ġsteps
Ġestend
Ġdiar
Ġexaminou
Ġnoticed
Ġaffairs
ĠpÃºblicas
Ġsoutheast
ĠnecessÃ¡rias
ĠSultan
Ġprivada
ĠsuÃŃ
ĠnecessÃ¡rios
Ġsilenciosamente
ĠcemitÃ©rio
Merge
Ġengen
ousa
:(
Ġfraqueza
ĠNext
Ġargumentos
Ġinfrastructure
Ġpleno
itects
Ġdefeating
ĠYang
ĠeconÃ´mico
ĠcrÃŃtico
ĠBulg
Ġconduta
ĠcrÃŃticas
enciado
utors
avel
ĠPrÃŃncipe
Ġidi
Ġcausas
ĠVerÃ£o
Ġunlikely
Ġenforcement
Ġmalic
ibliografia
Ġdress
Ġflowers
Ġsurgir
Ġquieto
Ġaluno
ĠPitt
ĠRot
Ġcompartilhar
Ġere
Ġpretos
Ġweekly
ĠforÃ§ado
Ġgarras
Ġavisar
ĠPaÃŃs
ĠDiocese
Ġacceptable
onente
Ġachando
Ġvessels
Ġmerecia
Ġacompanhou
ĠAuckland
ĠSimples
ĠMade
ĠincÃªndio
Ġsuperar
ĠBryan
ĠDepartamento
Ġcresceu
Ġcontos
Ġbagun
Ġfiles
Ġrates
ĠUltim
ĠAlto
Ġperspective
ĠTechnical
Orig
Ġarrastando
ĠFelipe
Ġgent
ĠsensaÃ§Ãµes
ĠJorn
ĠPrinceton
seas
Ġconselhos
ĠcolocÃ¡
ĠmÃŃdia
ennial
omi
Ġgrosse
len
ounced
ĠHughes
ĠDaw
Ġgrades
ĠPux
entia
Ġlinear
Ġtribu
gener
ĠArqu
Ġapagar
urel
ĠpatrÃ£o
named
ĠFay
ĠWu
Ġsecreto
Ġdrawing
ĠCarr
ĠConstituiÃ§Ã£o
Ġapoiar
Ġestendendo
Ġequili
ĠDias
Ġwhereas
inou
ĠSas
Ġpositiv
Ġwebsites
chor
Ġinfluential
ĠRefer
ĠCB
âļ¡
Ġutilizar
iona
roxim
ĠGosto
ĠBranch
Ġsouthwest
Ġemergency
ĠRevoluÃ§Ã£o
ĠCircuit
Ġchampionships
ĠGate
ĠsalvaÃ§Ã£o
Ġjaqueta
Ġneu
ĠAfonso
Ġmargin
ĠServi
Ġsuit
Date
ĠRams
Ġroda
Ġcrer
Ġenvolve
ĠGot
Ġmodific
Ġtie
Ġkingdom
ocas
ecas
ĠCH
Ġincorrect
ĠRiv
Ġironia
fel
ĠVladimir
Ġassegurar
Ġchildhood
iscop
ĠBachelor
Ġexcesso
Ġgrass
ĠconsequÃªncia
mate
Ġatitudes
ĠÃªxito
Ġnaqueles
Ġrecusa
Ãĩ
Ġactivists
ĠcansaÃ§o
Ġmaps
Ġderiv
ĠLeonardo
ĠalianÃ§a
ĠChoice
Ġclareza
Ġmalas
Ġimob
intas
ĠpÃ¡lpe
Ġvoto
deas
Ġagencies
Ġprecisou
Ġendure
Ġvizinho
Ġstrict
Ġprose
Ġacontecesse
Ġsaltar
Ġdistor
Ġcuriosa
Educ
Athlete
Ġfeedback
ĠPrior
Ġtechnique
Ġextreme
ĠdiÃ¡logo
Ġsimpatia
Ġpapa
ĠAntarc
ĠDale
otton
estone
Ġcaos
Ġcastanhos
ĠintervenÃ§Ã£o
ĠDod
Ol
Ġconsumo
ĠInn
Ġtranquilo
Ġconsistent
atian
Ġchamam
ĠAbril
Ġpiedade
ĠAmsterdam
Ġempregado
ĠFriends
ĠCongresso
ĠNora
ĠGreater
Ġcotid
ĠBath
Hen
ĠReich
ribed
Ã³dios
ĠnÃºcle
ĠJoshua
pecies
Ġstayed
istÃªncia
ĠMontgomery
Ġfaltava
ĠSelected
ĠAirlines
Ġabsence
Ġconflitos
Ġcaminhada
ĠpÃ©ss
Ġenri
Ġdeclara
ĠindependÃªncia
Ġatentamente
uque
Ġcego
ĠMunich
ĠFriedrich
Ġtemia
Ġpermitindo
ĠBeau
enton
ĠCharl
ĠâĻ
ĠErik
antemente
Ġhypo
ĠMoh
cap
perguntou
Ġdecline
Ġsuspect
Ġthousand
Ġaponta
pect
Ġapparent
ĠDrag
Ġrepre
Ġpreval
ĠContra
ĠaplicaÃ§Ã£o
Ġeleito
Ġcortes
bow
ĠWinner
ĠMÃ¡rio
Ġimagina
ĠBR
Ġbandeira
ĠDeep
Ġresponded
Ġinveja
Bem
tere
Ġtiros
onna
Ġconsidering
Ġpreench
Ġlimpou
ĠcristÃ£
Ġsigning
Ġtravesseiro
Ġposts
Ġauxiliar
Ġteachers
?--
Ġvulgar
Ġdesligou
ĠSociedade
ĠDim
Ġprovocou
Ġdoentes
ĠvÃ©spera
olÃ³gicas
host
ĠBeck
Ġmainstream
Ġsentenced
ĠLeslie
ĠPerhaps
Ġvolte
ĠOrlando
Ġfilmed
Ġconduzir
ĠBald
Ġimpossible
Ġmoves
Ġfalam
Ġsopa
Ġestranhas
Ġpreg
ĠbÃªn
Redirect
Ġeasier
instein
ĠPublications
nica
ĠConvers
Ġsimb
Ġost
ĠseÃ§Ã£o
ĠesqueÃ§a
Ġmexeu
ĠPrefecture
Ġriscos
Ġramo
ĠMoroc
ĠPlant
ĠLegend
Tem
ĠInfer
Ano
ĠWellington
Ġdistantes
Ġ!
estres
Ġdisput
ucker
Ġcriando
Ġnegocia
BM
Ġexpedition
ĠGoverno
Ġsaf
Ġdesesperado
ĠMercedes
Ġlaranja
Ġlid
|(
cat
ĠEmil
Ġinsup
Ġdesculpe
Ġsinta
ĠdepressÃ£o
ĠChen
ĠGP
Ġrequests
ĠHoriz
Ġcomemor
Ġseeking
ĠMater
ĠDeixa
ĠLatino
Ġreflect
guesia
ÃŃssima
later
Ġferramentas
Ġhomenagem
Ġestrangeiros
Ġinstrumental
Top
ĠBrandon
Ġincr
ĠFres
ĠJonas
ĠtraiÃ§Ã£o
Ġdelicada
Ġrivers
Ġfamosa
ĠSic
Ġspiritual
ĠmÃ¡gica
ĠindÃŃg
ĠmÃ¡rmore
Estou
Ġsigns
Ġprinted
ĠfeiÃ§Ãµes
Ġreorgan
Ġdepending
Med
Ġduvid
Brit
ĠLembro
tood
ĠSinc
Ġsoundtrack
ĠPhillips
Ġvampiros
icleta
ĠtragÃ©dia
ĠabenÃ§o
Ġrab
Ġamateur
Thomas
Ġphotography
Ġrol
abilidades
Ġcopos
ĠMaio
ĠFeatured
ĠlanÃ§ando
Ġtenh
mericano
ĠRail
ĠEstÃ¡s
aton
vira
ĠJamais
Ġosso
athon
bus
Ġlembre
Ġgoz
Ġwat
Ġcobre
Ġgreatly
Ġpermanecia
Public
Ġnoivo
ĠFoster
Ġposteriormente
ĠEstre
ĠCN
ĠTravis
Ġafastado
issue
Ġfruto
Ġdemocracia
utton
ĠAdmiral
Ġestrangeiro
Ġbanks
Ð½
ĠFinancial
SS
Hi
volution
ĠTerritory
Ġwrestling
Ġgentilmente
Ġorganizar
ĠSÃ©r
Ġaumentou
Ġintel
Ġcorreto
ĠexpressÃµes
Ġinclina
sem
asant
Jul
ĠLevantou
Ġviviam
Ġpersonality
Ġextremidade
ovÃ³
called
velt
ĠGuinea
Ġwheel
Ġeliminated
Ġbarb
ĠPros
shaped
Ġapplicable
Ġrelief
risse
ĠDoming
ĠClo
UC
incorporated
ĠTO
Ġexperimentar
Ġporn
izza
Ġnice
Ġrecup
Ġaposentos
orrente
Ġceg
ĠpÃ¡ssaro
Ġinclinando
Ġfama
Ġputting
eston
Ġcastigo
Ġdesempenho
ĠSlovak
Ġiniciativa
ÃŃsta
ĠImm
Ġartillery
Ġsqu
Ġdollar
Ġdatabase
ĠJerusalÃ©m
Ġcounties
Ġindiferente
Ġdecisions
Ġescrivan
Ġdissip
Ġabol
Ġmoedas
ablo
Ġeficaz
Ġdivertir
Charles
ĠPam
Ġchut
Ã¢ncer
ĠNatalie
ĠBailey
Ġtij
mons
ĠSymphony
ĠSco
music
ĠEagles
ĠfenÃ´menos
Ġjuro
Ġportrayed
ĠevidÃªncia
Ġestando
ĠLauren
itÃ¡
Ġthreatened
Ġnatal
Ġprivil
Ġgenera
Ġconsiderable
ensen
Ġconcreto
Ġbaseado
Ġalgor
Ġvended
ĠWatch
Ġsovi
ĠOil
Ġpanc
Ġparceiro
Ġconcrete
ĠcoraÃ§Ãµes
Ġgravata
ourse
Ġgira
Ġbebidas
ĠKara
ĠNorfolk
Ġserei
ĠbotÃµes
Ġdesejando
Ġcortina
Ġindisc
Ġviewed
ĠBaptist
ĠReason
Ġtermina
Ġusados
Ġdisputa
ĠDefunct
itavam
Ã³logos
ĠTherefore
Ġinduc
Ġswitch
ĠTaxa
Ã§ulman
ĠJÃºlio
ĠtÃ¡b
ĠVotes
Ġlieutenant
ML
lain
Ġcomplement
Ġwooden
ĠAngela
Ġabordagem
Ġmanufacturing
ĠThose
ĠbÃªbado
Ġrig
Ġsail
continu
ĠEleanor
Ġmandado
ĠSandy
ĠNegro
ĠcristÃ£o
osevelt
Ġsimpl
Ġnormas
Ġaw
Ġoccasionally
Ġassociate
Ġfracass
Ġpoets
mada
Ġruling
Ġlevantei
Ġdestaque
ĠautÃªn
fly
ĠZach
Ġfruit
inge
Ġpondo
mÃ£o
Ġexcellent
ĠLegal
Part
ĠTes
ĠArte
Ġincidente
Ġentertainment
Ġbegun
Ġfugiu
season
ĠusÃ¡
Ġcambale
Ġcarregar
care
ĠHonda
Ġpregui
verse
Ġmaravilhos
ĠGround
Ġsymb
Ġextrema
ĠmandÃŃbula
phic
Ġvinda
Ġmultiplic
Ġcrucial
Ġcoxa
Ġtrivial
Ġescorreg
Ġlargos
Ġcommentary
Ġdepic
Ġcoer
Ġprelimin
Ġassessment
intendo
ĠBrisbane
ĠKid
Ġluvas
Ġsurve
vendo
oker
imar
identes
ĠPunjab
ĠChico
Ġsecure
Ġimpre
Ġarrest
ĠArchae
Ġoportunidades
Ġalo
COI
Ġvolante
saw
ĠsalÃ¡rio
rin
ĠAshley
Ġwrites
ĠMachine
Ġpanel
ĠAthens
veiro
ĠNobel
ĠOutubro
eco
Ġrefug
ĠCommissioner
gios
Ġtirado
itarian
Ġsuspended
him
Ġhappens
ĠAdd
ĠGamesCategory
Ġleitores
ĠespecÃŃfico
Ġlose
Ġchup
Ġesfera
ĠSierra
adeiras
wau
waukee
Ġvoters
Ġvot
Ġdepartamento
Ġcomponents
Ġsecreta
uber
ĠKil
Ġassault
ĠSpirit
Ġdezoito
ĠescÃ¢nd
Ġgenerated
ĠsequÃªncia
Ġboundary
Ġsalas
Ġindigenous
Ġtestemunha
Ġprotestou
:âĢľ
Ġcobertor
usos
suced
Ġthemes
Ã¢ndia
ĠVermont
allow
ĠClarke
Ġtesouro
ĠporÃ£o
ĠlegÃŃ
ĠLeeds
strong
Ġassembly
Ġiden
viously
anci
Ġreiv
Ġrude
Ġquebrou
ĠexpansÃ£o
ĠCities
Ġardente
Ġprotetor
Ġhomic
peito
ĠSag
Dou
Ġstatue
Ġdesenhos
Ġfilmma
ĠKenneth
Ġpredecess
hew
Ġincreasingly
drew
ĠSn
Ġpromov
Ġcobria
Ġtente
Ġentering
Ġmarrom
ĠQuatro
Ġpiada
ĠRonald
elic
Ġtensa
Ġalf
ĠnÃ©voa
Ġdominar
ĠPhotogra
Ġconcordar
ĠclÃŃnica
ĠGuer
Ġgelado
ĠMoz
ĠdistribuiÃ§Ã£o
ĠCost
ĠchamÃ¡
Ġvoando
ĠreflexÃ£o
gets
Ġendors
Ġpercorreu
Ġwhitelisted
Ġduplic
ulaÃ§Ãµes
Ġcompor
Ġshel
Ġcabeceira
ĠFinance
ĠVatic
Ġpermitia
EstÃ¡
ĠGerald
ĠAnglic
Ġmedals
ĠID
Ġexclusivamente
Ġtrig
ĠArchitecture
Ġguitarist
ĠAlger
Ġplanta
tag
ĠRaw
ĠTrin
Ġdecepcion
Ġstudying
Ġdaughters
utivo
Ġescrivaninha
Ġlevada
Ġciclo
Ġearthqu
Ġnecessarily
ĠsecretÃ¡rio
iology
Ġdic
Ġconseguimos
ĠAlegre
Ġdeixo
Ġacon
Ġquintal
Ġmaj
Ġtranquila
Ġavisou
ĠVitÃ³ria
Ġturning
Ġtrecho
Ġtoss
Ġarrem
Ġconvention
ĠCoal
ĠBrother
ĠCord
mill
ĠexplicaÃ§Ãµes
ĠAper
ĠEthio
ĠnotÃ¡vel
Ġdisplayed
Ġprotocol
odÃ£o
ĠpossuÃŃ
Ġunidades
onesa
FF
Ġapresentado
ĠEff
Ġmanto
Ġentrela
ĠterrÃŃveis
ĠFranÃ§ois
Ġcreative
ĠestÃ¡tua
ĠVill
ĠEmb
rejas
Ġpormen
ĠDS
Ġeterna
Ġmineral
teor
fone
ĠJulho
ĠImage
Ġperigosa
ĠBren
ĠEdmund
uraÃ§Ã£o
ĠTheory
ĠOttawa
ĠrazoÃ¡vel
Ġoutput
Ġprinciples
Ġcostuma
ĠAlexandra
Ġtestemunhas
etor
Ġbranches
ĠFaculty
Ġscholarship
ĠKatherine
Ġsusto
ĠTens
ĠTreaty
Ġacted
ĠTodavia
Ġtexts
ĠTeve
quisition
Ġgravidade
ĠAqueles
ĠRecipients
active
Ġavaliar
Ġknows
Ġfacilit
Ġtests
Ġdesapont
Ġamass
AM
Ġreply
Ob
ĠWoods
Death
ĠPersistent
ĠJak
Ġspoken
cester
Ġaparecia
|}
Ġelder
Ġstro
ĠSoul
Ġtrap
Ġessentially
roe
Ġencouraged
ĠNate
ĠpoÃ§o
Ġspoke
Ġdiscussing
ĠciÃªncias
ĠRespond
Ġprofer
ĠMant
Ġpassamos
Ġprepara
Ġcaridade
hail
Ġbrilhava
ĠMuseu
ontal
ĠReyn
minster
Ġestudante
asmo
Ġprontos
Ã¨re
Hist
Ġphysics
ĠPin
Ġforming
Ġestreito
Ġconquistar
ĠSearch
ĠIrene
ĠfuncionÃ¡rio
Ġreagir
ĠHebrew
ĠComeÃ§ou
ĠBasta
ĠFisher
ĠbalanÃ§o
Ġapanhou
ĠSwim
Ġgeom
Ã¢ns
ĠDelta
Ġimpot
netic
ĠSente
urers
Ġances
Ġmencionar
ilas
tadas
Ġestarem
Ġhorses
ĠtÃºmulo
Ġfriendly
Ġesperavam
ĠDrive
Ġqualification
Ġturma
Ġgritava
Ġintention
ĠimpÃ©rio
ĠDelaware
Ġrelationships
ĠsobrevivÃªncia
ĠPlayStation
ĠConstruction
Ġpenalty
Ġcamada
Move
Ġadvancedid
ocÃªnc
Ġeat
Ġtod
Ġsoil
Ġpouquinho
ĠImport
Ġeventual
Ġrestore
Ã´nimo
Ġfro
oustic
senal
Ġpublicly
enberg
Ġirei
Ã³tica
outro
ĠfÃ³rm
ĠGuilher
Ġaltitude
Ġdemorar
graduate
Ġdebru
Ġmorre
ĠautomÃ³vel
Ġprohib
Ġduz
Ġminority
Ã³rcio
ĠTeatro
Ġutilizado
Disc
Ġensa
Ġestarei
Ġtrev
Ġreluz
ĠeleiÃ§Ãµes
ĠTrent
ĠMarÃŃa
ĠIntel
Ġpostos
Ġcelebrated
Ġeliminar
Ġguy
Ġdelicado
Ġconfused
Ġfuncionamento
Ġpalace
Ġcoch
ĠAmazon
Ġlandscape
ĠdeverÃ¡
ĠRoosevelt
ĠGarcia
Ġpreferred
Ġconservation
Ġestablishing
ĠOlho
ĠpÃ¡lpebras
Ġmons
Ġgraduating
Ġcredits
ĠjÃ³
Ġencostou
ĠmatemÃ¡tica
ĠCompanhia
Ġprecise
Ġcontinuavam
Ġdescribing
ĠSetembro
Ġcancelled
Tom
Ġsquadron
Ġrounds
ĠraciocÃŃnio
Ġargue
Ġarrancou
ĠComb
utenÃ§Ã£o
ĠFed
gate
Ġsotaque
Ġengano
ĠEnvironmental
vid
Ġreferenced
ĠAnal
iso
Ġnobres
ĠPhilosophy
Ġdeslizando
Ġempregada
Ġattempting
ĠPersian
dmin
Ġspaces
ĠPrÃªmio
ĠWinn
mentes
Ġarchitectural
new
ĠDesk
Ġharmonia
Ġacariciando
Ġsacerdote
Ġhabitu
Ġpip
ĠolhÃ¡
emplo
Ġcompeting
ĠDoro
ĠArb
urring
Ġconfiante
Ġlumin
ussia
ĠYam
Ġflows
tionally
ĠseleÃ§Ã£o
ĠByz
Ġgraus
ĠreferÃªncias
ĠTowns
Ġorgulhoso
ĠBurke
cut
Ġcobriu
Ġdadas
Ġfinais
Ġacknowled
Ġvolunteer
Ġtribut
ulava
ĠFernand
ĠalemÃ£
ĠIceland
Ġbehalf
Ġilhas
ĠCongo
Lo
Ġpia
ĠâĤ¬
Ġangusti
Ġmediante
Ġarregalados
ĠVem
ĠÃ³tima
ĠAx
Ġaimed
tianismo
ĠGw
ĠMaybe
Ġtremia
Ġarquivos
ĠMB
Ġpoems
atis
ĠBlock
Ġconfi
Ġnetworks
ĠCritics
ĠHus
ĠmÃºl
Ġfishing
Ġveem
cules
Ġchallen
ĠirritaÃ§Ã£o
Ġpropriamente
Ġbrus
Ġpensam
Ġdiscovery
ĠdiversÃ£o
Ġoferecendo
Ġconcluir
Ġlosses
Ġconfron
Ġvolto
Ġreinfor
://
Ġintelect
Ġtheat
ĠproprietÃ¡rio
ĠBetty
ĠalgodÃ£o
braries
Ġdistinguished
emin
umented
ĠMariana
Ġcontributing
ĠfÃªme
ĠsentenÃ§a
ĠsemelhanÃ§a
KO
sequ
ĠBach
Ġanalisar
Ġusername
Ã¢nsito
Ġnomeado
Ġfeeling
Ġadian
Ġlata
Ġmountains
Ġpossuir
ĠChristians
Ġplatforms
Ġinaugu
Äģ
ĠCara
atiz
Ġsatellite
Ġequipamento
Ġnorma
Ġmovia
Ġstable
Ġty
ĠTav
ĠsubstÃ¢ncia
xter
iger
Ġfrequency
Ġcrowd
ĠLamb
Ġarrastou
ĠSuponho
Ġforests
Ġencontrando
teses
Ġpulou
Ġpatron
Ġlance
Ġregresso
Ġcorri
ĠAbbey
COIBot
Ġhearing
volving
ĠScientific
ĠIntelligence
ĠacusaÃ§Ã£o
Ġwitness
ĠFiction
Ġparas
ĠAnders
Ġhi
Ġexclam
ilding
ĠEscol
ĠAgosto
ĠViol
adeÃ§o
Ġcondenado
abilities
ĠSerie
Ġcharacteristics
ĠArbit
ĠToyota
ĠDaÃŃ
Ġlawyers
Ġtampa
ĠPicture
Ġrestoration
ĠBrigh
Just
ĠGol
ĠresponsÃ¡veis
ĠEducational
Ġrosnou
Ġcomparec
Up
Ġencom
Ġpresc
ĠsuicÃŃdio
ĠMartÃŃn
Ġcousin
ĠFerreira
Ġdesire
Ġpermitido
Ġplural
egan
ĠTrou
Ġaffect
ĠGrove
ÃŃam
Ġartif
blo
Ġpararam
dios
Ġcombo
ĠFazia
Ġacabaram
Ġresearchers
Ġliquid
amental
Ġserpente
Ġpreconce
ĠMake
Qual
Ġconsolid
Ġprivado
alhÃ£o
Ġsurviving
ĠWon
ĠNintendo
Ġdivino
ĠmuÃ§ulman
Ġseriously
Ġutility
ĠTex
ĠDele
bound
Ãºncia
Ġphilosoph
Ġgenes
Ġfixos
Ġhighl
Ġevacu
Ġdigno
Ġinflam
ĠMC
ĠopÃ§Ãµes
ĠporÃ§Ã£o
Ġinicialmente
Ġpull
Ġestamp
Ġatingido
ĠGerais
ĠPia
Richard
ĠGolf
ĠNotable
ĠDemocrats
Ġligada
Ġdemolished
Ġcoma
Ġcomunicar
ĠBerlim
ipping
Ġpositivo
kh
Ġbarcos
Ġrevelando
ulsa
Ġsanc
ĠBelle
Ġsubter
ĠmÃ¡gico
Ġbrilhavam
Ġpne
high
ndez
Ġelevado
Ġpenas
ĠTwitter
estor
ĠindiferenÃ§a
elfare
Ġfalavam
Ġphotographs
Ġmassacre
ĠMud
Ġtheories
Ġimaginei
Ġmolhada
Ġdrew
ĠOlÃŃmp
Ġsugar
Ġfavour
Ġrevolta
ificaÃ§Ãµes
ĠGuild
Ġcintil
ĠFW
ĠlÃ£
Ġbutton
struc
Ġimporto
Ġobstante
ĠEld
arus
Ġsoldier
ĠMelissa
ieu
adian
Ġprofundas
Ġverdadeiros
ĠMeet
Ġanimada
ĠBorn
Ġsurrounded
Ġtese
Ġencontros
ĠconstruÃŃ
Ġespor
ĠSandra
ĠNaturais
ĠVerde
Ġsagrado
Ġinaugural
ĠbritÃ¢nico
Ġpicked
Ġselvagens
ĠThai
Ġreis
Ġaristocra
Ġape
ĠmoÃ§o
ĠdesgraÃ§a
Ġwine
Ġraste
Ġguilty
Ġconect
ĠGor
ĠMarta
Ġfixo
ĠCheg
Ġminist
lair
ĠCycl
Ġportugueses
Ġpool
illian
holder
ĠHerz
Ġlicensed
ĠComment
Ġconveniente
tempo
Ġqueijo
ĠLena
Ġenganar
rora
Ġmile
ĠGem
meiras
Ġprofundidade
Ġpeixes
Ġdisagre
ĠRidge
Ġespac
ĠNewcastle
Â½
published
zi
Ġsurrender
Ġmunicipalities
vian
story
post
Ġpavor
Ġbebeu
ĠCroatia
izaÃ§Ãµes
Ġpoverty
erie
arious
ĠruÃŃnas
Ġshares
Ġengenh
Ġpeaked
Ġbalas
Ġlongest
ially
entic
ficos
Ġaposento
Ġdescia
okie
ovan
Ġfrutas
ĠJoana
ĠmenÃ§Ã£o
ĠSweet
ĠKane
ĠHeath
ĠPel
Ġamada
Ġcorporate
elli
Ġsorr
ormal
Ġdemonstrated
Ġsenta
ĠMuslims
ĠBeh
Ġacender
ĠinvasÃ£o
Ġexplodiu
ĠÃ³rgÃ£o
Ġfornecer
Ġmovies
Ġcobrindo
Ã±a
ĠFlores
Ġadequada
Ġescravo
ĠrevelaÃ§Ã£o
ĠdÃŃvida
Ġgirando
Ġretribu
Ġsosse
enzie
Ġvisiting
rific
Ġswimming
Ġoral
Ġunderground
Ġtestes
Ret
ĠOz
Ġprocedimento
ĠAub
Ġabandonou
Ġferidas
ĠGlobe
ĠLabel
Ġinjusti
Ġcometer
Ġsees
Ġretail
itÃ¡rios
Ġlatest
Ġvessel
ĠTravel
Ġapplies
Ġbird
ĠMix
Ġconceb
angle
Ġtrave
net
ifinals
Ġexpressar
ĠEnglandCategory
ĠBrooks
ĠmanutenÃ§Ã£o
ĠPalestine
State
Ġabanou
Ġestranhamente
ĠAbby
Ġmorreram
Ġacontecimento
Ġsenhoras
Ġempol
Ġcompreende
Ġchegam
Ġculturais
si
Ġcomprehensive
Ġensinou
ĠEstas
queiro
Ġsear
Ġapla
licidade
Ġrib
buns
Lar
Ġcusta
Ġcabinet
Mil
ĠBuddhist
Ġtalentos
ĠSaman
Ġmanchas
Ġceme
Ġrespondo
Cur
ĠOriental
ĠChange
iremos
Ġcusp
ĠBros
ĠAgar
ĠReleased
ĠInterior
Ġearn
ickets
white
ethe
Ġpoup
ĠBlair
ĠConde
ĠdesconfortÃ¡vel
Ġidentical
ĠReading
Ġescondendo
Ġlevam
Po
Ġsupporters
ĠÅ
Ġtrevas
ĠEconomics
Ġcompara
Ã§al
Second
Ġemploy
Ġsincero
ĠSupporting
ĠTorre
Ġdeterminar
lavia
Ġmissions
ĠLeader
Ġcircuit
ĠgratidÃ£o
Ġvestia
Ġculmin
Ġliteralmente
Ġjuda
Ġabr
Crit
ĠChelsea
Ġhem
ĠidentificaÃ§Ã£o
Ġgallery
ĠPablo
Ġfiscal
adequ
Ġcausou
lei
Ġapressou
Ġoptions
Ġestruturas
Ġregressar
Ġclim
Ġsociedades
Ġlocomotives
ĠsÃºbita
Ġcomiss
Ġinjuries
Ġsutil
SÃ£o
Ġdurou
Ġaprecia
Ġgostam
fire
ĠFerg
ĠFurthermore
Ġjoga
ĠAtrav
legiate
Ġescondida
Ġvariedade
Ġintersection
Ġsupers
ĠMills
Ġcomendo
ĠExplic
Ġpopulations
ĠprecisÃ£o
ÃŃvia
Ġsuponho
Ġrescue
itchen
Ġcenters
Ġvow
Ġcompletion
Ġgarantia
sub
ĠPalav
Ġmacia
Ġreforma
Ġsubl
ogia
Ġsuaves
ĠPearl
Ġinner
ĠBibliography
Ġenvel
Ġenvelhe
Ġtentasse
ðŁ
ĠCapitÃ£o
Ġcoraj
ĠClaude
Ġunprotected
ĠKle
Ġtenda
eleste
Ġgarot
Peter
ĠMichelle
suit
Ġune
ĠWagner
Ġoptim
vereign
Ġdonated
ĠEscrit
Ġaprendeu
]*
leton
Ġfighter
Ġcalado
ĠRela
]}}
Ġmudando
Ġparticulares
Ġsegment
Ġacostumado
ÃŃculas
ĠEmmy
Ġimplemented
Ġvalia
Ġcomposto
Ġguerras
Ġespirituais
ĠSuch
aldo
Ġparando
ĠIndependence
Ġrecurso
Ġvivido
ĠhelicÃ³p
ĠMegan
ĠVicente
ĠMilton
ĠParticip
ĠMick
ĠFi
Ġbolas
Ã´nicos
ensiva
ĠPetersburg
Ġpercentage
winning
Ġromances
theless
ĠbalanÃ§
ĠHog
Ġdefinir
Ġorganisations
gica
Loss
ĠSheffield
ĠHem
ĠSebasti
Ġindicando
cidade
ĠVes
Ġaggreg
Ġcotovelo
Ġentendido
Ġrelating
ĠHouses
ĠCroatian
Ġfingindo
ĠIndividual
Ġtenure
Ġrepresentatives
Ġbreaking
Ġregardless
Ġjusta
Ġinclui
ĠComplex
Ġdanos
Ġsomewhere
Ġlimpeza
voir
ĠnaÃ§Ãµes
Ġtolo
ĠKingdomCategory
Ġaconteceria
Ġvisitors
Foi
ishment
ĠpoderÃ£o
Ġyoungest
Ġpregn
ĠChloe
ĠpreÃ§os
Ġvivas
ĠgeraÃ§Ãµes
sex
Ġflash
Ġexterna
Education
Polit
Ġmiseric
Ġmarkets
Ġdisestablished
Ġmentais
ĠDais
[[
Ġwhilst
Ġdegr
ĠIndonesian
King
Ġroster
Ġobedecer
ĠMartins
ugn
Ġmanda
Ġportrait
Ã³licos
isha
Ġgrown
Ġscientist
Ġmangas
Ġmundos
Ġproje
ĠObserv
JÃ¡
ĠvirÃ¡
Ġestradas
ĠProc
Ġprefeito
ancellor
Ġconvinced
Ġinadequ
Ġchal
Ġestender
Ġbid
ĠatuaÃ§Ã£o
Ġfecha
His
ĠAttorney
Ġgolpes
ĠestÃ¡b
Ġcompletar
Ġdiploma
Ġprovoca
Ġviolento
ĠYellow
ĠmarquÃªs
ĠRing
Ġalimento
Ġ:|
Ġalternate
Demographics
ĠExatamente
Ġrecolher
Ġesticou
ĠveÃŃculos
ĠWithout
Ġares
rs
ielder
Ġfont
itadas
Ġobtain
xia
ĠMann
Ġdirigido
Ġcomparison
ĠHappy
ĠRelations
ĠOperations
chan
ĠWonder
ĠlideranÃ§a
Ġneglig
Ġtelling
Ġdeusa
Ġiniciou
ĠVel
Ġdetes
ĠPE
Â´
prene
Ġcontamin
ĠcÃ¢ncer
Ġfolhe
Ġcrescendo
Ġpartially
Ġenganado
Ġprendeu
Ġmartial
Str
Ġcommemor
Ġlasted
onda
conf
Ġsaudades
Ġescolar
Ġequipped
ucks
cam
ĠPensou
Ġbeautiful
ĠUM
ieg
ĠTempo
Ġschedule
ĠMarty
Ġattracted
vert
Ġsoco
ritas
Ġpir
ĠCinco
Ã©rico
fford
ĠinspiraÃ§Ã£o
Ġperiods
Ġconsag
iasse
ĠLyon
arian
ĠHindi
Ġeighth
ĠSimpson
ĠNashville
Ġinterviews
main
ĠtrÃ¢nsito
ciam
ĠAbriu
ĠAdvan
ĠSoftware
Ġbloqueio
Ġpromoting
Ġarena
Ġaffiliated
ĠWilhelm
Ġexceed
Ġsuja
Ġbanh
Ġregistra
Ġdesastre
San
Ġsuplic
Ġignorou
Ġtrist
Ġimagine
ĠCompos
Ġrecebi
Ġgreg
ĠDerby
ĠgÃ©
Ġprocessing
wned
Ġwaiting
Ġpopulares
Ġtraje
ĠCF
Ġcorreta
ĠFlying
},"
Ġgin
brado
Ġnacionais
Ġtransportation
(\
ĠEnfim
Ġwider
ĠJin
ĠDuch
Ġervas
ĠepisÃ³dios
ĠJard
Ġattorney
Ġsubsidi
Ã³nia
Ġpercussion
Ġadolescentes
pero
Ġremote
Well
Ġbruxa
ĠPhD
ĠSask
Ġalterna
vals
Ġaccord
Ġeleven
Ġassemble
ĠVin
Ġignorando
ĠPaz
uits
Ġenfe
Ġreconhecido
Cent
ĠNi
ĠRovers
Ġthirty
pedo
ĠDÃª
ĠRhodes
ĠCÃ©u
Ġreportedly
Ġjaz
Ġmonitoring
Ġcave
Ġelo
ĠBradley
Ġregistros
ĠCAPÃįTULO
Ġagents
mu
Ġdisputes
Ġpecados
black
ĠVera
ĠAround
ucas
ĠLay
ĠLiberty
ĠAlc
Ġsofre
ĠeleiÃ§Ã£o
ricia
Ġcoaching
Ġtransformado
Ġworship
ĠOblast
gins
ĠLara
ĠcÃ³pia
Ġintit
oral
child
ĠRif
Ġ).
ĠCircle
ĠRudo
dot
ĠGazette
ĠJag
Ġfacing
Ġmeat
ĠÃļ
Ġpatrolling
Ġinsignific
Ġtrail
ĠMarcelo
ĠagitaÃ§Ã£o
Ġbuscando
ĠconstruÃŃda
Ġreves
ĠAcredit
Ġindef
Ġinterven
ĠHaz
ĠEstÃ¡vamos
zing
Pop
Ġpobreza
Ġlun
ĠSamantha
Ġaliviada
Ġsuggesting
Ġcorro
Ġjobs
uosa
ĠConservation
Ġconsiderou
Ġciente
Ġspar
Ġindicou
Ġoblig
ĠCould
..*
Ġcumprimento
Ġinfelizmente
ĠalmoÃ§ar
Ġmancha
Ġpotentially
ĠNicolas
Ġcomics
ĠDow
ĠMom
Ġprecisaria
Ġramos
Ġchapel
Ġcontinha
ÃŃdas
iba
Ġbenefits
Ġrecentes
ĠThom
Ġreper
ĠLav
ĠFilipe
Ġestendia
ĠHeat
Ġdeparture
ĠColumbus
Ġanywhere
ĠPerguntei
Ġmatado
Ġreads
ĠProtection
Ġexplodir
Ġamantes
Ġdisciplin
ĠTate
ĠAlpha
rows
Ġmolhado
ĠSusp
ĠamÃ¡vel
Ġwarn
Ġversos
Ġatordo
ĠMilwaukee
Ġsurgery
Ġselecion
ĠÃ¢ngulo
Ġrarely
ĠcÃ´modo
ĠApar
ĠAway
ĠWals
Ġinfantry
Ġlayer
ĠGang
wright
Ġengas
dep
ĠLiu
Ġai
Ġimproving
HA
Ġconservative
Ġassustador
isiÃ³n
ĠShould
Mat
Ġsad
ÑĤ
ĠSimilar
ĠKenya
Ġemerged
Ġ]
Ġmarry
ĠChand
ĠforÃ§ou
ĠVick
ĠDarwin
uradas
ĠTrue
Ġdowntown
Ġdefence
ĠNothing
ĠChurchill
ĠLebanon
ĠWesley
lies
estino
ĠFis
Ġdiab
ĠâĢ¢:
edic
Ġpossession
ĠusuÃ¡rio
ĠWend
Ġouviram
Ġcontinuam
ĠMati
ĠJohannes
ĠBulgaria
ossas
Ġbelongs
Ġsettlements
Ġganha
ĠRoland
ĠTheo
ĠShadow
Ġtuas
Ġpremiere
Ġfantasy
Ġviewing
Ġrepresentar
Women
Ġessential
Ġmerger
Black
Ġdecom
âĨĴ
Ġaparente
Ġseparados
mates
ĠCarvalho
raw
ĠStrateg
Ġsemic
Ġâĺ
ĠdiscussÃµes
Ġmargens
Ġpatas
Ġimagino
tingham
erÃ¡
Ġbalbuc
SA
rike
Ġrestrictions
Ġgovernments
Ġtribe
party
Ġsentem
European
Ġfill
!",
Ġatrair
Ġrefletir
ateral
amics
Ġveneno
ĠPenso
Ġrecebendo
trado
ĠInters
ĠStatistics
ĠSharpe
ĠciÃºme
Ġinstin
ĠBosnia
ĠJunho
Ġgostei
ĠAber
ĠassistÃªncia
ĠBernardo
ĠPosition
ĠcolchÃ£o
Ġaltamente
Ġencontrada
ĠPT
ĠExchange
Ġbanheira
Ġaccessible
Ġambassador
Ġquieta
Ġgravidez
Ġmentiras
seu
Ġdescart
âĢĶ.
comm
Ġeditions
ĠInvestig
ĠRoom
Ġarmadilha
Ġjustify
Ġrelaxar
Ġau
idance
Ġobt
Ġviolations
Ġconsel
Ġempty
Ġformula
Ġprest
Ġgota
Ġiniciar
Ġdevesse
ĠSwan
ĠEC
ĠFortun
Ġingred
imothy
caria
Ġcollaps
TAL
Ġadeus
Ġesvaz
ĠDemocrat
ĠtocÃ¡
Ġconfessar
Ġwet
Ġagriculture
orros
BO
ĠDominic
TOC
Ġmurmura
Ġmato
Most
Ġpatient
Ġdrugs
ĠprotegÃª
Ġexclusively
word
ĠNE
ĠDevon
Ġusam
Ġenfra
Ġenfraqu
ĠMerit
ĠTennis
Ġcorn
Ġatento
ĠFica
ĠCÃ³digo
tact
Ġspend
Ġsoul
ĠaudiÃªncia
Ġsobrinho
ĠLocation
ĠPoliticians
eneg
Ġcastanho
ĠRevista
Ġast
Ġrenaming
gun
general
ĠFelizmente
ÃŃlios
iscopal
Ġsuspeito
ĠAnglican
appropriate
ĠCraw
Ġdesmor
ĠRodrigues
Ġvinc
Local
ĠPrison
Spam
Ġcontraste
Ġanimado
ĠGuilherme
Ġorgulh
Smith
Ġchamadas
tacular
Ġlembrei
Ġmeetings
ĠCitiz
ĠSolar
ĠSyn
Ġorganismo
Ġescrevendo
atÃ³rios
ifinal
Ġdistrito
Ġpsicologia
Ġdealing
ĠProd
Ã¡rb
ĠÃ¡t
ĠHopkins
Ġpartly
Ġresolvido
aldiÃ§o
Ġimprovements
ĠBulgarian
Ġhonour
Ġrecusar
Fol
leto
Ġprecios
Ġjardins
ĠBruns
Ġopponents
Rank
PD
ĠExiste
gment
ĠâĨ
Ġworst
ĠLess
ĠJoaquim
Closure
Ġpunha
ĠBrigitte
ĠMaya
Ġstyles
ĠDivisiÃ³n
ĠGermans
Ġintermin
ĠAlexandria
Ġanci
Ġteim
ĠTogether
Production
Ġgrud
Ġillness
ĠDR
etos
Ġabsolutely
Ġcinzas
ĠCultura
ĠDominican
uÃ¡rios
Ġetapa
ĠChristine
Ġsorry
ĠEt
Ġequiv
Ġdiminuir
Ġcapela
Ġveludo
ĠPalmer
Ġgenetic
ĠThunder
ĠMorte
ĠKumar
ĠMarion
ĠlaÃ§os
Ġridic
Ġtram
ĠIdaho
ĠMachado
Ġlocalizada
Ġcaneta
ĠBased
Ġsujeitos
Ġretirada
Ġenvolvidos
ĠPalestinian
Ġmedi
ĠcrenÃ§as
ĠDeveria
ĠFighter
cc
irada
oning
ĠmisÃ©ria
Ġcharacterized
Ġestende
Ġdepo
erife
meida
ĠTomÃ¡s
ĠMulti
def
Ġacentu
ĠCrystal
ĠAless
uste
Ġsubdiv
ĠRepresentative
Ġwarned
Ġodd
Ġyield
ĠcritÃ©rios
zig
Ġreveals
Ġlutou
ĠBanks
ĠfilÃ³sofo
Ġtomei
Ġcomplicado
umi
ficas
ĠGala
ditos
Ġvariant
Ã³st
ĠIPs
onies
ĠcomeÃ§ara
Since
Ġelectron
Ġpercebendo
Ġhandle
ĠdistinÃ§Ã£o
ĠOuviu
Ġoutrora
Ġupdate
Ġinfinito
EAT
ĠInv
Ġalpha
ĠProble
Ġrequirement
Ġconfort
Ġef
ĠHey
Ġconvoc
Ġrapidly
Ġiluminado
ĠMonth
notes
Ġcasca
ĠDiscussÃ£o
uclear
Ġmoradores
Ġcalcinha
Ġloyal
Ġceder
ĠChapel
ĠBrasÃŃlia
Ġnarrative
ĠYa
ĠAzerbaijan
Ġbright
Ġamanhecer
Ġmarginal
Ġequipes
rington
novation
ĠJohan
ĠPakistani
Ġchegavam
ocÃªncia
ĠQues
Ġgozar
Ġaconche
Ġprece
Ġsonh
Ġsurf
Reports
ĠBloom
Ġbrev
Ġpeoples
Round
Ġpares
ĠagÃªncia
Ġverbal
erala
Ġfled
ishing
ĠJackie
disc
Ġpodendo
ĠKrist
ĠÃºnicos
ĠThorn
Ġparticipantes
ĠSyrian
Ġtape
Ġmathematics
Ġpg
Ġlealdade
ĠNigerian
Ġlots
Ġvelh
Ġoccasions
Ġpressionou
Ġhonors
Ġnormais
Ġradar
fD
Ġzo
Ġmarker
Ġresident
ĠautorizaÃ§Ã£o
ĠcÃ´n
Ġrespective
Ġredund
Family
Ġhence
Ġmeteu
Ġastro
Ġrochas
Ġcantando
Ġparam
Ġmuseums
feitos
ĠVern
ĠArtur
Ġleaf
Su
NH
ĠNoel
East
Ġbelas
Ġwearing
onal
ĠmoÃ§as
abad
ĠLorenzo
Ġlibras
ĠReligion
Ġconcentration
Ġtodavia
ĠBeyond
Ġvendas
Ġoutono
ĠRhode
ĠComplete
Ġscor
Ġfach
guer
ĠestÃºpida
ipper
ety
Ġmun
ĠFrankfurt
ĠUnknown
rov
ĠSinger
Ġdano
ĠDif
ĠFly
Ġharass
ĠAssociaÃ§Ã£o
Ġgalhos
turn
adeza
ĠContinental
ĠPassei
isting
antava
Ġuncer
ĠOuro
Ġsubstitute
Ġoficialmente
ĠParks
Art
ĠIng
ĠWorkers
University
Ġencourage
Ġcondessa
lapse
Ġdismissed
ĠcomposiÃ§Ã£o
ĠTerm
ĠurgÃªncia
ĠForum
aked
Ġpreparou
Ġrevision
Ġindisp
Ġgate
mic
Ġunderta
ĠChegou
Ġcarregado
ĠDavies
ardeal
Ġquoted
ĠâĨĴ:
ĠPeninsula
ĠNear
ĠSox
Ġviera
Ġconflicts
Ġtranse
ĠTrain
Ġgado
Ġposting
bet
Ġdentre
Result
Ġcamisola
ĠChad
ĠtrÃ¡g
Ġendemic
Epis
ĠOrd
riers
Ġparticipating
ĠJanet
Ġparava
ĠReis
ĠBav
kar
Ġexplorar
ĠTher
Ġsna
ĠterraÃ§o
Ġamongst
ĠBoris
Ġsig
Ġconfessou
Ġoperational
Ġcontinuaram
Ġcurar
pete
Ġfumo
ĠSpo
ĠPoints
ĠPlanet
ĠtripulaÃ§Ã£o
Ġcomposta
Ġclock
Ġatuais
Ġgirar
ĠrevÃ³l
ĠrevÃ³lver
Major
Ġgrossa
ĠmÃº
ĠFormation
Ġdiet
Ġembarc
note
Ġcov
utora
Ġmilag
ĠMerda
fante
Ġinternacionais
ĠegÃŃp
Ġlegislative
Ġfestivals
Ġspending
Ġspin
ĠEugene
Ġuploads
Ġtags
Ġoque
ĠcientÃŃfico
rug
Ġadivinhar
holm
ĠFictional
Ġtransformando
ĠSomer
Ġchamber
ĠLambert
Ġinteressada
.âĢ¢
ĠUniverso
Ġexercise
Ġmerchant
ĠRandy
gados
Ġsensibilidade
Ġlimits
Ġherdeiro
Ġdeixavam
ĠedifÃŃcios
ĠmanifestaÃ§Ã£o
ĠReid
sim
Ġagonia
Ġinappropriate
Ġamonto
Ġjuven
ĠignorÃ¢ncia
Ġescuta
Ġuncle
Ġconsiga
Ġdenunci
nox
Ġfreestyle
Ġfeio
ĠPou
ĠTiger
ulous
ĠFras
ĠDani
ĠRas
Mo
ĠJared
ĠKris
Ġadulto
ĠorganizaÃ§Ãµes
ĠBrun
Ġsuffering
Ġunanim
ĠCastelo
British
ĠPerd
Ġgam
ĠBanco
illon
homem
Ġdigit
ĠMalay
Ġerup
Ġsharp
Ġpatterns
Ġsolto
ĠShane
aber
tural
ÃŃrio
Ġduo
ĠDame
Ġsugere
Ġemployment
Ġluto
Ġarquivo
ĠtirÃ¡
Ġcorreio
ĠEllie
Ġtrading
Ġhid
atorze
lez
Ġromper
ĠCarmen
Ġcorrectly
Ġformou
Ġsintomas
Ġkeyboards
entando
tification
ĠPink
ĠTrevor
Ġrubor
Ġinformed
ĠSalt
oly
Ġeis
Ġfati
Ġestabelecimento
Ġpoly
AP
Ġasks
Ġencosta
ĠHoloca
Ġpractical
Ġerrors
Ġescapou
Ġtratando
ĠViolet
Ġrequis
Ġvictim
Ġadults
Ġatendeu
Ġnotado
guia
ĠbenefÃŃcio
ĠSands
Ġindividuais
Ġweapon
ĠTristan
ĠJornal
Ġalarme
Ġfailing
ĠtentaÃ§Ã£o
Ġobscure
ĠClÃ¡
Ġcarp
ÃŃv
ĠJur
ĠAndrews
ĠBelarus
ĠShanghai
urea
Ġfechadas
ĠLynn
Ġplayoffs
Ġbebendo
Ġmachucar
ĠRange
ĠArmstrong
Ġintegrated
ĠKi
Ġacredite
izard
ĠmÃºltip
ĠCurtis
Ġstruggle
fei
Ġdeprim
Ġthriller
Ġimediata
ĠGast
formerly
Ġdestruction
Ġallegations
Ġpoll
ĠFig
Ġfeia
ĠHaven
group
Ġconhecem
LigaÃ§Ãµes
Ġlegs
Ġhidden
Ġpesadas
Ġapoiando
Ġinvolves
Ġobteve
Ġsofrendo
Ġturno
Ġautob
ĠBian
Ġolhavam
Ġarrogante
ĠsÃ¡bio
Ġalegremente
ĠBullet
ĠDeixou
Ġaustr
Ġcable
Ġviewers
Ġjudeu
Ã¶r
ĠExistem
Ġbisco
ĠPret
Ġbelonging
Ġcaderno
ĠAlmeida
ĠBronze
Ġsubje
Ġmixing
Ġremainder
gnÃ³s
Ġranks
ĠLenn
ulties
Ġtemor
ĠlÃ¡pis
ĠinsuportÃ¡vel
ĠEssex
Ã©ticas
ĠexploraÃ§Ã£o
Ġvacil
Ġdesgosto
Person
ĠvigilÃ¢ncia
Ġrios
Ġreligiosos
Ġespecialista
Ġprend
cano
Girl
Ġdoloroso
Ġintelectuais
etal
Ġesqueci
ĠNovembro
Ġafterwards
Ġsofistic
ÃŃsica
ĠAppe
ĠHD
iffs
Ġescritores
ĠMcDonald
Ġsuti
ĠJamaica
ĠgÃªnio
Ġvaluable
ĠparÃ¡
ĠHaving
Mart
Ġhein
yste
Vol
ĠNeu
Ġcauda
ĠPick
Ġimplac
ourage
ĠSouza
Ġsecular
Ġsustain
ĠSpecies
keep
apelle
Ġpromover
Ġredire
Ġemigrants
wpReason
Ġsentando
Form
Ġintellectual
ĠWould
ĠHass
Ġodeio
ĠMarÃ§o
Ġswit
volta
Ġcandidato
:==
Ġesfregando
ryp
Ġgelada
ĠRenaissance
Ġprivileg
ĠTree
Ãªmios
Ġnoble
Ġoutcome
ĠGardens
Ġtelefonema
Ġviolenta
Ġwido
ĠnÃŃ
Ġhun
Ġimply
Ġparticipou
ĠVolta
ĠJava
Ġbrutal
tech
ĠTable
ĠFourth
Ġwarm
Ġcomponent
Ġtribes
ĠVossa
Ġmeados
ĠWarriors
pin
}}&
iko
ĠAlec
Jac
ĠStre
ĠinocÃªncia
Ġsubsc
Ġopportunities
Ġlegisl
Ġabati
Ġcolors
Ġmarcar
Ġcurvas
ĠTerror
Gold
icionais
Ġcoalition
Ġcategorias
aneously
Ġvistos
Ġmaci
Ġbarro
Ġprovocando
ĠLok
atou
Ġpioneer
midt
ĠKol
ĠStudent
enders
Ġapolog
ĠVenice
Ġboats
wpMove
wpMovetalk
ĠFelix
ĠChuck
Ġvagar
ĠRegina
Ġchuveiro
Ġaparecem
ĠPerth
Ġfrutos
Ġmuseu
Ġinformar
Ġmasculina
ĠMeanwhile
levard
Ġsurname
ĠTang
ĠKend
Ġdiameter
ĠVanessa
ĠcorrespondÃªncia
ĠOce
Ġnegou
Ġevitando
Ġmessages
Ġbicicleta
ĠPrepar
Ġpoorly
ĠTentou
ilho
Ġpatrol
ported
cÃ³p
Ġarrangement
ionalmente
Ġtraveled
ĠSU
ĠvÃŃnc
Ġgradually
ĠLembra
ostamente
ĠconvÃ©s
Ġensaio
Ġdesaje
east
ĠPessoas
Ġwars
adows
Ġgritei
Ġmisterioso
Ġcurvou
Ġcompreendia
ĠWestminster
Ġine
ĠExped
ĠTorres
ĠPorter
Ġlegitim
Ġdespedir
Ġdemonstrate
ĠFutebolistas
ĠFlem
ĠescÃ¢ndalo
ĠST
Ġreparou
fessional
Honours
ĠEvel
ĠLakes
ĠCampos
Ġreduzir
.__
ĠShin
ĠStrong
Ġuniverse
ĠIX
ĠWarsaw
ĠÃ©tica
ĠSons
Ġanteced
Ġsinceridade
Ġmecanismo
ĠRelease
ĠOwn
ĠHern
Ġdescal
Ġsculpture
Ġeligible
å¤
Ġdistinction
ĠStella
ĠRevival
ĠDete
Ġgrandfather
ĠediÃ§Ãµes
ĠPegou
Ġannually
Ġlocality
Ġrespirando
ĠligaÃ§Ãµes
mbolos
ĠMagnus
ĠBranca
Ġcertificar
ĠconvencÃª
raria
aba
ĠCanadÃ¡
Ã©lio
Ġindicar
athers
Ġtransmission
ĠGavin
Ġpon
Ġcontinente
ĠMajestade
ĠParagu
ĠArabia
ĠGomes
ĠHenderson
ĠGrammy
Ġengage
ĠÃ¢mbito
Frank
ĠGuitar
abeÃ§a
Ã¥
ĠGeoffrey
Ġrelocated
ĠFlet
ĠUniverse
Ġexplo
ĠHigher
roid
enÃ£o
Ġcompletou
cista
Ġbea
abul
ĠadorÃ¡vel
ĠimpressÃµes
Ġdourada
Non
ching
ĠElliott
Ġcorriam
tons
utions
ĠlenÃ§ol
Ġindicador
Ġalgorith
ĠDorothy
Ġviolent
Ġvistas
Ġchorava
Ġfantasmas
Civil
Ġcomerciais
ĠNine
Ġclan
Ġprocedure
ĠGlor
Ġcivilian
Ġpoderemos
Ġprefiro
Ġparecida
Ġassal
Ġmaquia
Ġtalks
ovina
Ġfocuses
Ġunnecess
Ġdebates
pers
Ġchallenges
edos
Ġmanage
ĠAngels
Ġconsiderados
ĠTyp
Ġtelefonar
ĠStories
Ġsilent
ĠSÃ©rio
ĠsolitÃ¡rio
backs
Ġtirava
ĠOw
ĠAurora
Ġtrio
ĠmanifestaÃ§Ãµes
mado
ĠMalta
ĠAgriculture
Ġmistake
ĠPresent
Ġdiplomatic
ĠStein
ĠfÃ³s
Ġgerais
Ġgarrafas
Ġvictor
Ġformations
ĠRolling
ĠMonday
ĠextraordinÃ¡rio
Ġcommanded
ĠSimplesmente
Ġartwork
Ġinsurance
Ġmantido
Ġobjective
ignated
Ġfortaleza
ĠPÃºb
Ġpassear
Ġchampanhe
Ġsuspeitas
ĠconsiderÃ¡vel
Ġpular
Ġgris
ĠbuscÃ¡
Ġtrials
ĠHeaven
ĠInferno
ĠWorth
ĠLegislature
Ġfalling
Ġfraud
Ġoccasion
ĠamaldiÃ§o
Ġelevation
Ġeterno
Ġamig
ĠLyd
Ġwel
ĠFec
Ġcalcanh
Ġrecovered
ĠGand
ĠClif
ĠOutras
Ã¸
Ġcouples
ulados
ĠAjud
Ġfundamentais
ameters
ĠMarcoc
ĠMarcocapelle
jamento
ĠConstantin
empre
Ġdriven
Ġtapa
Ġinitiative
ĠhÃ³spedes
Ġdamas
ĠmÃ¡xima
Ġtratou
ĠAlves
ĠHispanic
ĠDaisy
Ġfinalidade
Ġpaga
olado
Ġdiverse
Ġapartment
Ġdeemed
ĠPowell
Ġmortes
Ġventos
Ġphysician
ĠNan
Ġmurdered
Ġinfil
Ġdocumented
Ġbaixos
ĠPiet
ĠKerala
Ġrepair
ĠProtestant
Ġrussos
Tr
ĠMei
Ġrelay
toire
ulk
ĠIz
ĠmaldiÃ§Ã£o
otage
Ġbelieves
ĠCompetition
ĠLuxemb
Ġandares
Ġzangado
Ġnaming
Ġaprendi
Ġsembl
ĠNorton
Ġforth
ĠLista
Ġtitular
Ġlevara
involving
onomous
Ġbarreira
Ġligados
ĠDurham
Ġminimal
Ġindispens
Ġdivul
Ġinvestigar
Roman
Ġquan
ĠPO
âĢĺ
Ġdesconcer
Ġparad
ĠHanna
Ġpercor
uters
tenÃ§Ã£o
Ġguarante
ĠArmed
Ġresolved
ĠExplor
)-
Ġ(âĢľ
Ġsympt
ĠIvy
Ġirrad
ĠFen
Ġinnings
Ġindependentemente
rÃŃ
ĠVil
Ġbasically
Ġlargou
ĠTerce
Ġsaved
Ġcivis
ĠManual
Ġbaixas
Ġadministrators
ĠdimensÃµes
ĠdivÃ³rcio
Pat
Ġpesados
ĠfÃŃsicos
Ġincrivelmente
Ġcondem
ortal
ĠRaz
Ġfresca
game
Ġromanos
Nomin
phis
Ġphil
Ġproduces
ĠnÃºcleo
ĠPref
Ġvenceu
Ġbroadcasting
Ġvizinh
Ġfeud
Ġprisioneiro
Ġexigir
Ġdespedida
ĠincrÃ©d
ĠvÃ©u
Ġgotas
Ġoutstanding
ipped
ĠAnat
ĠScient
While
ĠWriting
Ġexplains
ĠPle
ĠSÃ©rgio
Ġwedding
ĠÃ¡rabe
Ġaprendido
Ġgentileza
Ġproduzido
ĠÃºmido
Ġenh
ĠDana
ĠBes
ĠZhang
Ġestreia
Ġwithdrawn
Ġprometo
Ġabroad
Ġdemora
ĠArchbishop
ĠAllied
Ġmentalmente
Ġaplica
Ġpassasse
Ġexplicitly
ĠPrague
Ġperdoar
Ġcompetitive
ĠsaÃŃsse
tios
ourt
ĠShawn
Ġsatisfazer
Ġoh
Ġalcohol
ĠAircraft
ĠAdvanced
wald
ĠCun
ĠCork
Ġdefending
ĠGabe
ĠShop
Ġcolony
ĠHarbor
ĠKap
Ġponder
Ġrebuilt
Ġpublicada
ĠCohen
Ġreligiosas
Ġdevolv
ĠVillages
ensivo
Ġweekend
Ġoperator
Ġpensativo
Ġseriamente
inguished
ĠJoint
Ġouter
ĠCheckUser
erative
zie
anning
ĠJoey
Ġ"(
Ġpintor
ĠconfissÃ£o
ĠChronicle
ecidos
Ãºdos
ĠClear
eso
Ġconversion
Ġpush
atche
Ġaceito
Ġcompleting
Ġpendurado
Ġrhythm
ĠFemin
Ġorigins
Ġlum
Ġphotographer
ĠRT
Ġfator
Ġpercebia
ĠDivisÃ£o
Cons
Ġerected
Ġsupplies
Ġchecked
Ġpretas
pecific
ĠAustrÃ¡lia
yage
Ġcombust
ĠtransmissÃ£o
pat
Sum
Ġgeladeira
ĠJaime
Ġpulsos
Ġattending
Ġincred
jeira
Ġdemol
NC
Ġstandings
Ġdelicadeza
Ġarbustos
Ġillustrated
vy
Ġsurvive
ĠPalÃ¡cio
press
Ġunclear
Ev
ĠMobile
ĠladrÃ£o
minute
ĠassociaÃ§Ã£o
ĠDrum
ĠbilhÃµes
Ġexposed
ĠFerdin
Pol
ĠsaÃŃam
bios
ĠÃŃntima
ĠLeices
Ġthin
ĠestÃŃm
Ġscen
ĠJudith
Ġrated
ĠTunis
yright
Ġintervalo
ĠDefending
ĠcrÃ¢nio
Ġlevasse
ĠRice
ĠVent
Ġparl
verage
ĠPalm
ĠCasey
pective
Ġocean
Ġmostram
ĠGian
Ġaperta
Ġpartidos
Ġapresentava
Ġgerente
ĠSomerset
Ġconnections
ĠLau
ĠAI
Ġaliviado
enburg
yon
entinamente
Ġviro
hour
ĠsimpÃ¡tico
ĠResources
ĠGlenn
ĠexercÃŃcios
\'
ticles
Ġcog
amilos
Ġdesconhecida
ĠSecondary
ĠFergus
Ġhasn
Ġapareceram
ĠPrac
Ġadmirar
Ġwithdrew
Cal
Ġinitiated
.âĢĻ
backer
Ġsentei
ĠMarinha
Ġparto
ĠDawn
Ġsincera
Ġdeslizar
fielder
ĠdestruÃŃ
ĠExtra
ĠRuby
ĠSolomon
alena
Ġbattery
Ã¢nt
Ġigrejas
ĠPublishers
enidade
enstein
Ġparei
Ġcrep
Ġraparigas
Ġajude
ï¼Į
ĠGiant
pine
ĠreverÃªncia
ÃŃnia
PM
Ġsaltos
Ġantiqu
ĠIdade
ĠLamento
ĠBrunswick
hue
govern
Ġdecides
Ġdefault
Ġnelas
Ġabd
Ġelectrical
ĠameaÃ§as
Ġborders
Ġpest
Ã§ura
ĠSaÃºde
sula
Ġsuperficial
core
ĠMilitar
Ġfram
ĠExcel
ĠSoutheast
Ġrevised
Ġmarcou
Ġsentiria
Ġacordada
istÃ£o
ĠChes
ĠimpaciÃªncia
ĠProfile
Ġparecesse
Ġjogado
Ġsofrido
Ġconfirmar
Ġlabour
Ã³ricas
ĠProvincial
Ġadvogados
urgo
Ġrecompensa
Ġjornalistas
Ġaprofund
ĠJeffrey
ĠobservaÃ§Ãµes
ĠDevil
Ġdelicioso
Ġhonorary
Ġbaseada
ĠEdwin
ĠManila
Ġsciences
ĠTibet
ĠApol
Ġsupple
enhor
Ġferimento
ĠPerman
ĠDos
Ġcorresponding
Ġdevolver
Ġoutbreak
Ġafeto
Ġrecebia
Ġvestiu
unÃ§Ã£o
wareness
Ġromano
esty
ĠevidÃªncias
Ġdoors
ĠtrÃªmula
Ġrelance
avo
Ġlenda
âĢĻ.
Ġtradicionais
ĠPris
ĠSudan
alin
ection
ĠPhillip
scale
Ġcamadas
Ġcash
Ġcolocava
Ġconfid
ĠPatr
ĠLegion
Ġlisten
Ġinquiet
Geor
ĠBak
Ġrup
trum
ĠHip
ĠCash
ĠVisual
ĠUnidosCategoria
ront
Ġhelicop
Ġappreciate
olhos
ĠSig
ĠFantasy
Ġimplementation
inheiros
Ġunderstood
ĠLars
ĠdiscÃŃpulos
ĠParte
ĠvÃ´
Ġwire
Ġexcav
Ġquinh
Ġmamilos
Ġcombater
ĠIndianapolis
nesday
ĠCardinals
ĠirÃ£o
Ġrising
Ġconting
ĠCou
ĠDatabase
ĠLook
Ġdesejou
Ġnegativa
ĠlibertaÃ§Ã£o
ĠRaul
ĠavanÃ§o
á»
ĠFerrari
Ġescudo
Ġplenamente
ocial
Ġenro
ĠAB
Ġcrossed
ĠConserv
feld
uke
ĠTribune
ĠColo
iclop
Ã¡ndez
Ġressal
Ġcolocada
Ġcoron
Ġimpostos
Ġreconc
Ġpoderosos
Ġbacter
ĠanÃºncio
ĠtÃªnis
ĠMcM
Ġconcorr
ĠOF
Ġconstitutional
ĠHeather
âĺ
Ġajoelhou
AT
aparec
ambling
Ġcontinuous
Ã¢neos
Ġlamp
ĠDezembro
istido
Ġindicating
Ġduplo
utei
Ġabismo
Ġtremor
ĠGrÃ©cia
Ġmorais
Ġmolho
Ġmito
ĠAtlas
Archive
ĠWinds
Ġmagnitude
Ġproximidade
Ġfadas
ĠMonteneg
ĠclÃ¡ssico
Ġlutas
cula
ĠbenefÃŃcios
Ġverb
ĠChurches
Ġapresentam
ĠterÃŃamos
Ġsubstituir
ĠPreston
Ġobrigou
ĠsÃŃmbolos
entine
ĠLudwig
ĠestÃ¡gio
Ġpersist
Ġencanto
Ġceased
Ġescutou
Ġperdera
ffs
gements
Cer
Ġclothing
ĠImagino
tiles
Ġbizar
ĠMarl
ĠOakland
iture
ĠBelo
ĠDroga
Ġbridges
Pal
ĠaproximaÃ§Ã£o
tering
ĠBoliv
iche
astr
mology
ĠespecÃŃfica
Suspected
ĠMatch
ĠRud
Ġnaquilo
ĠBrien
uÃŃna
ĠPhysics
Ġorgasmo
Ġpassadas
ĠforÃ§ando
Ġvaler
ĠClassical
ĠWinston
harma
ĠDum
Ġski
trans
ĠEspir
Ġtriunfo
ĠgravaÃ§Ã£o
Ġcolunas
ĠCopenha
umberland
ĠBil
Ġpromessas
Ġinstructions
ĠPhilippe
ĠMiche
aduras
ĠCampo
ĠContest
Ġsobe
Ġcantora
ĠFranc
ĠanotaÃ§Ãµes
Ġguidance
avan
Ġheading
Ġconheciam
Ġrespeit
Ġrepous
ĠCrea
ĠÃģsia
ĠPand
Ġknock
Ġcautela
Ġseman
ĠLour
Vamos
ĠperÃŃodos
æľ
Ġsalva
Ġtraditions
Ġleagues
ĠMak
indsay
Ġorganised
ĠhipÃ³teses
ĠgÃ©nero
Ġenjoyed
Ġcontents
ĠextraordinÃ¡ria
quez
Ġspelling
Ġconseguindo
Ġpercurso
orders
Ġtalent
reck
Ġcommunications
ĠlocalizaÃ§Ã£o
Ġinterromper
ĠByzantine
retanha
sas
Ġincumbent
ĠReligious
Ġimaginado
Ter
ĠaconteÃ§a
usions
Ġspeaker
Ġsalvou
ĠBurton
Ġfronteiras
ĠPoly
Ġsubmarine
Ġgoogle
Ġpursue
Ġfratern
ateu
writing
Ġforum
Ġatores
encion
Ġdeployed
ĠCust
Speedy
ĠreaÃ§Ãµes
Ġconstitution
Ġarmaz
ĠWithin
Ġrestricted
Ok
ĠVelho
ĠÃ¢nimo
Ġdenotes
Hun
Ġopponent
brid
hester
Ġeconomics
Ġmechanism
ponÃŃvel
ĠforÃ§ar
atorial
Ġenth
Ġgiant
Ġlevei
Ġdespertou
Ðº
ĠGibson
Ġespinha
Ġboundaries
Ġprotesto
ĠfiÃ©is
ustrated
Ġsanctions
ĠBranco
Ġconfusion
ĠHoff
Ġassistindo
ĠFletcher
ĠDG
ĠAlong
Ġanuncia
Ġconcerts
Ãºgio
ĠJuliet
Ġsantos
Ãĵ
ĠFolk
Ġthrone
Ġaguentar
Ġdangerous
Ġclaros
Ġassets
Ġah
Ġeuropeus
Meu
ĠGustavo
ĠVÃª
Ġitaliana
cuador
ĠJulius
Ġcreme
ĠNottingham
Ġoitenta
orp
Ġbull
Ġroots
ortion
ĠStudents
ishna
Ġsecured
Ġparks
Ġcustomers
tric
ĠdoÃ§ura
orative
Ġexercer
Ġsuspected
Ġunlike
ĠSak
iographies
Ġtranst
Ġsuporte
ĠtÃºnica
atin
bin
ĠresoluÃ§Ã£o
ĠColonial
Ġengineers
French
ĠJob
hoods
ĠBE
-,
rum
Ġacreditam
Ġconspiracy
Ġestudando
ĠcampeÃ£o
Ġcaix
Ġplanejado
Ġtestemunho
ĠStyle
ĠFellows
Ag
iadores
Ġpract
ĠRevolutionary
Ġembria
ĠWit
veio
Ġregister
ĠRichardson
ĠprÃ©dios
Billboard
Ġposter
Ġimpede
Ġave
Ġdeck
ĠPalomar
ĠCairo
toria
à®
ĠAchiev
ĠIC
Ġarguing
ĠPÃ¡gina
nex
Ġpedidos
Ġlocally
ĠReynolds
ĠSendo
ĠAlgum
ĠCool
Ġuna
Ġsarcas
ĠMonroe
berry
ĠmiserÃ¡vel
amilies
ĠparaÃŃso
Ġprosseguir
Ġaside
Ġcontendo
ĠHurricane
ĠBears
ĠIndex
Ġrepresentava
Ġhorizontal
ims
ĠpotÃªncia
Ġpago
ĠChess
ĠPorra
Ġarrepio
Ġremark
Mal
Ġrato
Ġmines
ĠBatman
icken
Ġendireitou
Ġchefes
ĠFails
Ġencontrasse
Ġacabaria
Ġnoting
Ġveria
ĠSlam
ĠLov
Ġpartial
ĠMurder
ĠKash
Ġprecisasse
Ġalive
ĠFilipino
Ġhumilde
iquem
vias
ĠRegu
Ġpermitted
lovak
Works
ĠMoney
Ġarranc
uba
ĠIlha
fish
Ġrepresentante
boys
Ġusavam
rain
Ġprepare
ĠcoincidÃªncia
Ġempurrar
ĠBreak
ourg
Ġslave
Ġtight
Ãªu
Ġcais
ĠAngus
Ġculpada
Ġbelonged
Ġpris
Ġfalamos
Ġrecover
atedral
Ġsustentar
Ġpassagens
Ġtransmitir
Ġpaul
Ġlegacy
adrez
Ġpublicou
Tal
ĠfÃ¼r
Ġsoltando
Ġfileiras
Ġluar
ĠToo
ĠTermin
hados
Ġmortais
Ġsubj
ĠgestÃ£o
Ġfutura
Ġdrink
ĠPromo
Ġpreparava
voy
Ġcomprado
Ġesclarecer
ĠKenny
Ġinterface
ĠGriffin
Ġgaleria
Ġmencionou
ÑĢ
ĠGhana
Esta
ĠoraÃ§Ãµes
Ġduzentos
ÃŃrita
Ã´nicas
ĠhesitaÃ§Ã£o
Ġrac
Daniel
Ġlacking
Ġrenunci
Ġoriental
Ġsubterr
ĠperseguiÃ§Ã£o
Ġmolecular
Ġrevenue
Ġsitting
Ġdevast
Ġconhecera
ĠPengu
ĠdisponÃŃveis
Ġgrey
Ġbeauty
Ġvacc
ĠDecision
ĠPercy
ĠpreferÃªncia
Ġticket
she
ĠBag
Ġambigu
ĠHamburg
Ġdesdo
ĠDeaths
Ġdesconfor
Ġannouncement
ĠCut
Ġreverts
Ġbonitas
Ġalliance
ĠGros
Ġconso
Ġrecado
ĠProper
tinha
ĠexigÃªncias
ĠrefeiÃ§Ãµes
auge
ample
Ġconcorda
Ġpressionando
Ġreduction
hammed
ĠFalcon
ĠEntr
ĠAgainst
Ġpolar
ĠascensÃ£o
pector
ĠSoon
Ġinherited
Ġfurn
ĠdesconfianÃ§a
ĠCristina
Ġpulo
umbai
Ġ"[
ĠBatal
terbury
ĠrecuperaÃ§Ã£o
ĠShips
Ġconstituem
Ġaluc
quezas
Ġupgr
ĠfreqÃ¼Ãªncia
ĠclÃ£
Louis
Ġterritorial
eeper
Ab
ĠcomeÃ§avam
Ġjustifica
Ġcerebral
Ġsubsidiary
Ġemperor
Ġsetenta
ĠOverall
ĠGermanyCategory
ĠKazakh
ĠVÃ£o
ĠParad
Ġtotally
eppe
osidade
Ġfalha
Ġvaso
Ġalinh
ĠMuch
ĠFinally
ĠBast
Ġprovinces
ĠLists
Ġearning
ĠduraÃ§Ã£o
Ġenergias
Ġdirige
Ġcontinuasse
Ġvisitantes
ĠCir
ĠBeing
bird
Ġmanufacturer
Ġterrivelmente
ĠPenny
Ġclinical
Ġ"]
Ġhoax
Ġaliviar
ĠSummary
Ġplenty
ĠImagine
Ġearthquake
ĠMÃºs
ĠciÃºmes
Ġteles
ĠromÃ¢ntico
Ġstrategic
asy
Ġdividir
Ġ//
Ġsupostamente
Quem
Ġlegitimate
ox
ĠcÃ³l
atha
ĠSaw
Ġporco
Ġintensamente
Ġsaxoph
Ġfunded
ĠLiterary
Ġrefres
ĠPern
ĠacusaÃ§Ãµes
ĠOlhando
ĠrÃ¡pidos
endor
Ġpulled
rec
itismo
ĠJules
Ġcoat
Ġcharacteristic
Ġvolunteers
Ġsurgiram
Ġpraticar
ĠHalf
ĠPoetry
ĠMald
Ġsaio
Ġescar
ĠRede
ĠSug
Ġmencionado
tach
Ġdelivery
ĠMotorsports
Ġbeija
omaticamente
ompass
ĠdecepÃ§Ã£o
Ġbattalion
jados
ĠCaleb
Ġcompuls
ĠVargas
Ġhighlight
tershire
omic
Ġparcialmente
Ġcompl
Ġtola
Ġdesac
Ġneck
Ġregulations
ĠdeverÃŃamos
Ġdesenvolvido
ĠOg
Jack
ĠCox
tizaÃ§Ã£o
Ġarrastar
ĠRibeiro
Ġcharity
ĠTales
Ġmax
ĠDee
Ġintimid
ĠGlass
Ġpunhado
ĠFech
ĠAparentemente
Ġespere
itÃª
TED
ĠcrÃŃticos
conde
ĠMetal
Ġworse
Ġ')
Ġlayout
Ġpupp
cismo
ĠKitty
gary
ĠfeitiÃ§o
ĠRally
ĠDistinguished
bian
ĠMechan
ÃŃbulo
Ġeffic
Ġthank
izava
ĠGarc
Ġmissa
ursday
Ġpoemas
ĠVirou
ĠÄ
Ġcemetery
Ġconsulta
ĠPorsche
ĠliÃ§Ãµes
Ġaventuras
Ġvibra
Ġjury
Ã§oso
ĠInterview
Ġpalp
DR
Ġanat
atchewan
Ġmera
Ġbutter
Ġarbitr
ĠElias
tiveram
ĠvÃŃr
Ġtristes
ĠMail
ĠNotre
Ã³sitos
ĠBun
Ġguardou
inaÃ§Ãµes
Sam
Ġorbit
Ġgordo
landa
Ġpoderei
Ġcantor
Ġjurisdiction
Ġsolely
ĠPopulation
Ġexistentes
tifications
ĠRE
Ġrecostou
Ġqueimar
Ġmatando
eze
Ġdespeito
Ġlocalizado
Ġcausado
Ġquilos
Ġconversation
ĠEngineers
case
Ġconvert
Ġfarmers
Ġdeveres
amples
Ġesquema
Ġexperts
Ġthoughts
ĠBarnes
MF
Ġpsican
Ġfon
Ġsocorro
Ġprestig
Ġsolidar
ĠShir
Ġcostelas
ĠClare
Ġcircle
Ġmaquiagem
ĠAlfredo
Ġassisti
Ġplacing
Ġninth
Ġgall
igual
Ã³grafo
Ġcamps
ĠHub
eway
ĠTess
Ã§amos
ritz
Ġbasicamente
Ġcercado
ĠBarra
Ġdisestablishments
Ġconnecting
Ġdiseases
RT
Ã³ris
Ġni
ĠocupaÃ§Ã£o
Original
Ġhorr
quel
aph
Ġlevavam
Ġcolumns
Ġanimation
ĠLuca
Ġrename
Ġsummit
Ġfeels
player
tivation
Ġdesnecess
ĠiluminaÃ§Ã£o
ĠVery
Ġomit
Ġprefere
ĠacompanhÃ¡
urna
Ġpainel
Ġcruzados
ĠdepÃ³sito
Ġhistoriador
ĠRush
Ġmaqu
ĠclassificaÃ§Ã£o
adaria
ĠFaculdade
ST
Bob
ĠBirth
Ġbatatas
Ġhonesto
ĠbebÃ©
ĠDeclined
Ġcensura
Ġjunction
Ġvagamente
ĠBenedict
Ġengolir
Ġcompreendo
ĠconstituiÃ§Ã£o
ĠTasman
Ġeficiente
icote
Ġanot
Ġcontributor
Ġferidos
Ġseguros
ĠTropical
Ġrefrig
ĠFevereiro
Ġties
Joe
entry
Ġcobra
Ġativa
Ġarredores
Ġquinto
jÃ¡
ĠForÃ§a
ĠLydia
Ġsessions
Ġdelicadamente
ĠSousa
Ġurgente
ĠNorthwest
Ġcombinado
Ġsombria
Ġther
Ġsponsored
Ġram
aze
äº
ĠSharon
Ġsimultaneamente
ĠJohns
Ġdespesas
ĠFinals
Ġtwin
ĠKnox
Ġexpressa
ĠGan
Ġlowest
Ġeleitor
ĠON
ĠCommerce
Ġrecognised
Ġride
Ġcarries
Sou
ĠvisÃµes
Ġsemblante
ovÃ¡
ĠButter
ĠKan
Ġimmigrants
ĠLaurel
Ġprodutor
ĠIndigenous
Ġremix
ĠTampa
Jim
ĠDio
ĠUganda
ĠCiÃªncias
Ġassisted
Ġcooperation
Ġfaixas
ĠbarÃ£o
Ġtanks
Ġescolhas
ĠNÃĥO
Ġclimb
Ġpalet
ĠProcur
Mark
Ġexag
ĠJude
Ġencontrara
Ġmandato
worthy
edith
ĠTfDed
Ġsignature
ologias
ĠOriginally
ĠFala
Ġpartners
Following
ĠFeder
ivado
Ġstubs
Ġovel
Inc
tilho
Ġelevada
Ġarroz
Ġpositiva
Ġmounted
ĠSussex
Ġexecution
ĠCarta
ĠCele
rait
Ġtunnel
iÃ³n
Ġdevoted
ĠTrabalho
ĠKiss
Ġnons
Ġampar
lph
Ġplaus
Ġhorm
ĠAF
Ġimbec
utados
ĠProto
Ã©lica
ĠpareÃ§a
ĠZero
Ġreen
Ġcompiled
Ġadds
actions
Ġvirus
ĠEspa
ĠelÃ©trica
ĠSimone
âĢł
prim
anthrop
ĠfogÃ£o
ĠgarÃ§om
Ġdelegado
Ġactively
Ġsequel
Ġextend
ĠchinÃªs
Ġaeron
ĠingÃªn
Ġultimamente
ĠMethodist
Ġexpectativas
Ġtours
Ġdominated
Ġvitor
Ġmemo
nar
Ġgestic
ĠAngola
ĠintuiÃ§Ã£o
atria
Ġpreca
Ġmuros
ouso
rika
ĠMemphis
Ġsobrinha
Ġbateria
Ġacademia
gebra
Ġextensively
ĠBoulevard
Ġcarrier
ĠtÃŃpico
Ġagradeceu
ĠUns
Ġtamanha
ĠAnto
Ġhesitante
ĠindicaÃ§Ã£o
Ġservido
ĠApost
osexual
Ġdispostos
Ã³cia
Ital
Ġacoustic
Ġdiscut
ĠTimothy
Ġsoar
fielders
Ġviolentamente
Ġlobos
Ġformada
Ġtreze
oter
ĠDuque
Ġdescobertas
Ġtentaram
ĠAw
Ġrecipient
tara
Ġaccusations
Ġindication
Ġtreaty
ĠDescription
ĠCampus
ĠFraser
Ġcruis
Ġgear
Ġmeasured
iavam
Ġtemperamento
first
ĠDocumentary
mirante
Ġrelatos
Ġspeakers
Sal
ĠalimentaÃ§Ã£o
ĠsaÃŃmos
ierre
Ġreceptor
Ġestiveram
Ġmechanical
Ġtribo
Ġusadas
ĠFul
Ġmentindo
Ġmanaging
ĠHomens
ĠlÃº
Ġborough
Ġcumprimentou
Ġpedag
cionais
unders
Ġdedicar
ĠWake
Ġarmazen
Ġoriginalmente
ĠGarcÃŃa
Ġfecho
Ġward
Ġrebell
ĠAhmad
ĠQuest
Ġredond
ĠVersion
Ġvizinha
ĠpodÃŃamos
Ġhistorically
Ġunderw
Ġcampaigns
Ġcirurgia
Ġabertamente
ĠFighting
ĠinÃºmeros
Ġcarregava
Ġcotovelos
ĠWinners
Ġelectricity
Ġsket
Joseph
Ġapropriado
Ġatend
Ġincreases
Ġbiological
Ġenterrado
Ġperfectly
Ġoscil
Ġmm
Player
ĠHank
Ġdepicted
Ġtemporarily
ĠCres
Ġpressup
ĠTac
block
rimir
Ġmonop
ĠMesa
Ġamarela
Gra
ĠTroy
Ġselect
Ġcolinas
ĠSete
ĠLetters
ioca
Ġfragment
Ġunsuccessful
Ġatrev
Ġconviv
Ġcomeu
Ġbelos
ĠNass
Ġ'"
ĠUnlike
Ġespe
ĠYugoslavia
ĠGeorges
ĠNesta
ĠCatalina
Ġpreocupa
brada
Ġchallenged
Ġrepentinamente
Ġresemb
Ġinternationally
Ġinesperada
ĠIsabella
ĠVolunte
Ġoriginated
Ġcollapse
ĠBever
ĠPaper
agen
ĠEcuador
ĠLindsay
ĠRobertson
Ġdita
Sir
ĠDiante
ussels
Ġquotes
Ġbishops
Ġeldest
Ġentrevist
Ġpractic
Ġespecialistas
ĠTemporary
ersÃ£o
ĠEvangelho
ĠPotter
Ġhind
Ġsarc
ĠBass
monton
rico
ĠHeights
Ġsight
ĠlanÃ§ada
ĠbebÃªs
Ġfantasias
ĠJÃºlia
Ġespecificamente
lif
Ġindire
ĠAnimal
Ġcron
ĠabraÃ§ando
Ġadmira
Ġretal
Ġlevados
Ġprodu
Ġoferecia
cier
Ġabruptamente
astas
Ġaplicar
Ġwatching
ĠutilizaÃ§Ã£o
Ã´nias
ĠtraÃ§o
SE
CAR
Ġthreats
ĠhelicÃ³ptero
ĠNeed
Ġresource
ylon
ĠBog
Ġmagic
Ġpervers
ĠStockholm
Ġbagagem
Ã¡vio
ĠleÃ£o
ĠCombat
ulum
week
Ġconcepts
Ġtonel
Ġvazias
Ġsupervision
Ġrunners
ĠCriminal
ĠJoyce
AN
generated
Ã¡lise
ĠKhal
Ġreivindic
Ġassassinado
Ġresignation
Ġsituations
Ġload
Ġpassaria
Ġresort
Ã¡ssemos
Ġespalhou
Ġabb
Henry
Ġamargura
Ġvirgem
Ġbay
Ġintent
Ġapoiado
ĠCompar
some
Ãªnf
Ġprofundos
Ġferimentos
Jay
Ġburacos
odor
Ġaffair
Ġresgate
ĠegoÃŃsta
outheastern
Ġdella
ĠAndrade
aties
ĠWillie
Ġabus
ĠTucker
Ġchamavam
athy
Ġpale
ĠBelf
Ġsanction
Ġreferindo
righted
Ġclaras
ĠpegÃ¡
Ġempenh
Ġevil
Ġsaem
Ġspell
ĠCeltic
rique
ĠMD
Ġpiscar
Ġagindo
adrÃµes
ĠCommercial
pzig
ĠTriple
Ġfeelings
Ġefficient
Ġprecioso
Ġtirei
Ġcortado
tipo
Ġreporter
Ġsmooth
Ġgrata
Ġfalasse
Ġproductions
Ġenven
Ġcuidando
ĠCorp
Ġdedicado
educ
ĠcomeÃ§amos
Ġrepresentantes
Ġficarem
Ġmodernos
Ġslowly
Ġtemporal
Ġlistings
Ġengenheiro
ĠAdventures
ĠGuarda
Ġitens
Ġsant
ĠCanadaCategory
Ġcursos
ĠComissÃ£o
ĠMois
ĠBradford
Ġconcentra
abil
ĠbÃªnÃ§Ã£o
lison
Ġtargets
endÃªncia
ĠcÃ³lera
ĠCandid
ĠGlou
Ġsearching
Ġarmados
ambers
Ġacquisition
alter
ĠShell
ĠMorrison
ĠrÃ©deas
Ġrecuar
Â§
Ġgrows
Ġmassas
ĠcomÃ©dia
urm
rising
ĠLie
ĠNaturalmente
ĠSM
ĠSess
Ġenchendo
urst
Ġcomboio
Ġmakeup
Ġreproduz
Ġinfluenc
Ġmacho
ĠdestruÃŃdo
ĠEscre
ĠMelanie
Ġenvolvida
geted
ĠPlaza
ĠDamon
adier
ĠForbes
ĠGla
Ġgatos
certo
Ġacion
Ġchemistry
):#
France
ĠSerena
ĠBrent
Ġmathematic
Ġparameter
Ġreceberam
umbo
ĠMikhail
Ġverdadeiras
ĠPense
ceria
ĠSF
Ġdivulg
Ġotim
Ġidentification
Ġautomaticamente
meral
ĠlÃ³gico
ĠcÃº
ĠText
Ġaliados
ĠChi
Ġespadas
Ġaumenta
Vic
ĠRoth
feta
ĠBackground
mil
Ġdisorder
Ġanno
imensional
Ġdefended
Ġpig
seus
Ġcouncill
ĠBaix
Cha
ĠGothic
Ġalugu
Ġgregos
opher
Ġstreaming
ĠOcidente
Ġaumentando
Ġestil
Ġraiz
ĠAtt
Ġacusado
ividade
phaned
Ġfinanceira
Ġemig
,*
Ġrecrut
Ġtribute
Ġsoma
idata
Ġtomaram
Ġpetition
Ġcollective
ĠIntroduction
Ġperderam
ĠSchmidt
Ġeggs
ÃŃgios
Ð»
Ġxadrez
Ġdeterior
Clerk
Base
Ġapreciar
ĠJunction
Ġchore
Ġfisicamente
Ġodor
Ġurso
Che
!âĢĿ,
Ġagradar
ĠWander
Ġcapitalismo
Ġmains
Ġunnecessary
Ġadorn
ĠLance
ĠvizinhanÃ§a
Ġtoured
Ġparameters
Ġtorpedo
Ġtasks
Ġsentava
ĠStephanie
Ġsoa
ĠConcert
ĠAposto
cism
ĠChristina
flix
ĠadversÃ¡rio
Ġenxug
Ġincess
Ġclearer
Ġnobreza
Ġcondicion
tindo
Ġaviation
ternoon
Ġfilming
ĠAtrÃ¡s
ĠaviÃµes
ĠSche
Ġmanteiga
ĠabraÃ§ar
Ġequivalente
Ġdescreve
Ġequipamentos
making
Ġsettlers
ĠMumbai
Ġencontraria
Ġdivertida
ĠdisfarÃ§ar
Ġigualdade
Ġprevisto
Ġlatim
ĠfÃŃsicas
Ġverifiable
iph
ĠLago
Ġfavorito
ĠVon
Ġexpensive
ĠBudap
varo
ĠMeredith
ĠSaskatchewan
hl
jay
Ġrasp
Ġrud
esliga
ĠED
Ġinstantaneamente
ĠBurns
Ġneto
produc
Ġpunk
Ġcinemat
Ġexemplar
ĠVeter
ĠSera
ĠÃ³rb
Ġganhando
Ġchegarem
preneur
Ġattacking
ĠSatan
idelidade
pointed
Ġnegotiations
Ġautora
ĠTelegraph
Ġhunting
uaÃ§Ã£o
Ġesculp
echos
ĠUntil
ĠExcell
rÃ³leo
Ġdifficulty
Ġlogic
Ġapelo
Ġorganizado
ĠBella
uncredited
ĠTir
ĠHardy
Ġimpec
ÃŃnios
Ġhumilha
ĠSchol
Ġdurar
Current
ĠAgnes
Ġconsideration
ffer
Ġloiro
Ġintermed
Ġattractions
Ġdebt
Ġraising
law
ĠestarÃ£o
Ġpairs
Ġsobressal
ĠPere
ĠSafety
ĠGrÃ£
ĠCreative
ĠMoisÃ©s
ĠSporting
ĠvulnerÃ¡vel
gart
ĠCyprus
ĠusuÃ¡rios
Ã¢ng
jection
ĠtivÃ©ssemos
pol
Ġcapace
ĠKingston
jah
ĠCalvin
Ġassustou
ĠdemonstraÃ§Ã£o
ĠemprÃ©s
erion
Ġtrailer
Ġcaminhonete
ĠÃŃm
ĠEntry
Ġespalhados
Ġbirthday
ĠCarson
Ġsagu
Ġdeputado
Ġassem
lov
ĠdoÃŃa
tidores
Ġgoalk
Ġreaches
Ġfirmes
ĠKids
Ġdesaparecimento
Ġibn
Ġholand
ĠEconomy
Deus
Ġtigela
erner
ullen
inhando
ĠdanÃ§ando
Ġinformado
Ġrenas
Ġnur
Ġemotional
ĠDescob
Release
Ġprecisando
Personnel
Ġsorridente
Ġmachines
Ġacreditou
Ġlevantava
Ġbrings
Ġproclam
Ġapertada
ĠAnita
blacklist
Ġinesperado
arro
Ġcafe
Ġinquiry
Ġapetite
Ġframework
Ġexhibited
Ġcriminoso
Ġencontrados
Ġfrieza
ĠPrecisa
ĠCalgary
Ġmemb
ĠcidadÃ£o
Ġqualif
Ġcoloco
nea
ĠCanterbury
ĠMaterial
ĠNu
ĠKin
eplay
ĠFeel
Ġnearest
Ġpistas
Ġconvento
Ġporte
Ġobscur
Ġisolated
Ġkidn
Ġsenador
olen
rock
Ġamounts
Ġindependently
Ġcarrinho
ĠclÃ¡ssica
ĠpÃª
Ġinfluences
Ġmacio
Ġsisters
Ġadventure
ĠHayes
ĠportÃµes
Ġdescreveu
ĠliterÃ¡ria
Ġimpressionado
ĠsolitÃ¡ria
ĠFerdinand
Ġpossibil
Ġpushed
outra
ĠBibliografia
Ġpreparation
ships
ĠpÃ¡tria
Ġencontre
ĠCrawford
Ġrecognize
ĠCarroll
Ġholder
Ġdiariamente
Ġwalking
Ġvass
Ġloira
Ġphenomen
ĠPatricia
Ġdeva
ĠtransiÃ§Ã£o
utral
ĠFoot
ĠImagin
ĠAns
Ġinsistir
Ġpuderam
ĠGiven
Tele
bele
ĠWhitney
Ġtherapy
ĠCiv
Ġescondeu
Ġcomunidades
four
ĠÃºnicas
Ġcondado
Ġsongwriter
Ġroot
Ġdesmoron
Ġresponses
Ġrepouso
Ġreducing
Ġentidade
Ġcontinuo
Ġdominant
sei
ribe
umbra
Ġdrummer
Ġretreat
Ġatravessando
chard
USA
ĠHig
Ġprivacidade
ĠencarÃ¡
Ġmesinha
ĠDigo
Ġrealize
Grand
Ġrolou
Ġseques
oard
ĠCabinet
Ġdisaster
Ġdisap
CAP
ĠmisericÃ³rdia
ĠJosef
Ġspecialized
Ġtemperatures
ĠEliminated
ĠMaxwell
Ġtransit
Ġgap
ĠverÃ¡
Ġchorou
Ġexclusive
month
ĠHolocaust
Ġhydro
ĠCassie
Ġbombing
Ġtruly
estim
Ġdisputed
ĠcontribuiÃ§Ã£o
Ġarmadura
aneta
riaÃ§Ã£o
Ġinspiration
ĠSidney
Ġthesis
Agora
Ġdificilmente
Ġdesencade
through
Ġincomum
Ġfrios
ĠrÃŃgido
Ġsacudindo
ancar
ĠDefin
Ġregards
Ġocupava
ĠCatÃ³lica
Ġaverm
Ġcoordinates
ĠExhibition
Ġtables
ĠpÃ©ro
ĠAndreas
gnÃ³stico
ursing
ĠHi
Ġrespondia
Ġmentes
Ġblocking
Ġrecompens
Ġjustificar
Ġaguardava
ĠpaletÃ³
ĠMÃ©d
ĠSovi
Ġswe
ĠVista
ĠLoss
Ġimplica
Ġarchives
Ġsacos
Australian
ĠtradiÃ§Ãµes
Ġexames
Ġblues
Ġcy
ĠexpediÃ§Ã£o
stanbul
Ġtested
ategories
Ġchicote
Ġimpediu
Ġmagra
eper
ousse
ĠBirds
Ġacompanhava
ĠRat
Ġbrevemente
ĠVietnamese
Ġsuavidade
ĠDesert
ĠNeigh
feiÃ§o
fred
Ġpassados
Ġsignificar
Two
Ġreside
continued
ĠsaguÃ£o
ĠmÃ¡go
ĠParan
orrow
Ġventure
Ġinvolunt
Ġcentros
ĠAbsol
ographical
rials
emies
ĠFrancesco
ĠProducer
ĠAlbanian
ĠSla
ĠRichards
ĠWyoming
ĠquÃŃmica
ĠHeinrich
ĠdarÃ¡
ĠRex
Ġbeating
tivesse
ĠEinstein
Ġqualific
Ġflecha
Ġvantagens
jective
burgo
ĠTell
Ġfee
Ġfachada
ĠMercury
Ġmelod
borah
xygen
ĠIsle
Ġdesembar
Ġlevanto
Ġdezesseis
ĠInvest
ĠCade
ĠCed
conhe
qÃ¼enta
erick
ĠbÃŃb
Ġfocusing
Ġnotei
Ġorqu
Ġconhecidas
Ã©p
ĠconferÃªncia
Ġgrac
ĠNuclear
ĠOlga
Ġsoap
ecera
Ġconseguiam
Ġaguda
ĠaceitaÃ§Ã£o
ĠPont
ĠlÃ¢mpada
Ġordinary
Ġvisits
Ġmonastery
ĠTruth
ĠpreparaÃ§Ã£o
Ġexposure
Ġcostumam
ĠAproxim
ĠDiane
ĠMotion
alina
zan
Ġextrav
banded
Ġperceived
Ġburned
Tudo
End
market
Ġgeometry
harm
Ġsyndrome
Ġslaves
Segu
Ġcreates
Ġincompre
Ġtel
Ġdemanda
archy
Ġcigarros
Ġfertil
ĠKill
Ġtrauma
ĠpropÃ´s
Ġpredecessor
ĠSuff
ĠReds
Ġfumar
Ġcorporal
ĠFundaÃ§Ã£o
Ġclaridade
Ġroubado
Ġshore
Ġacceler
Ġoposta
Ġrumores
rapped
Ġsocks
Ġexhibitions
ĠBela
uous
ĠBurg
Accused
Ġatmosphere
Ġstim
ĠSmo
Ġfolga
ĠmeditaÃ§Ã£o
ĠÃīs
cycle
Ġcomplaint
Ġwritings
egovina
ĠPhysical
Ġpresentation
Ġfighters
nik
ĠbagunÃ§a
tela
Ġastero
ledo
Ġadquirir
ĠDenis
imp
Ġsymptoms
Ġreverse
NÃ³s
Ġgarantiu
Ġsonhar
Ġentendendo
ĠArmenia
Ġkne
endum
Ġbrincou
Ġlucro
Ġeditora
Ġmanufacturers
Ġmontes
Ġinfl
Ġhardware
Ġble
Ġsonol
ĠEye
Ġexistente
Her
Ġunicamente
Ġirrelevant
Ġtraseira
Ġpesc
Ã§amento
ĠCornell
Ġsurpreendido
Ġorgulhosa
Ġestima
Ġspac
iscellaneous
endÃ¡rio
Ġgastar
Ġdiscos
ĠElla
Sa
ĠAbel
ĠAugusta
Ġleves
YearTitle
Ġconventional
Ġvazios
Ġexigiu
iot
ĠResta
Ġapoder
Ġlanded
byter
Ġgratu
rise
Ġcinzento
Ġacompanhada
Ġmergulhou
Ġhosting
ianas
ĠMeyer
tracks
ĠKai
ĠAtlÃ©tico
ĠErnst
ĠintroduÃ§Ã£o
Ġimpass
ĠChor
Ġcoloque
Ġcm
Ġnus
sider
gava
Ġwarrant
neg
ĠAdvis
ĠVirgem
Ġloop
ĠAE
Ġangle
ĠAlma
ĠMedieval
ĠBasil
Ġservindo
Ġproibido
ĠExpedition
Ġdisruption
ashire
Ġterminus
ĠChemical
ĠEscÃ³cia
estrut
Ġrealizou
ĠRicky
Ġfugindo
ĠMano
:!
Ġamargo
ustration
Ġacolh
Ġpretendo
Ġbrilhar
Charts
!?
ĠLegacy
Ġluminos
ĠThings
Welcome
ĠAda
ĠcÃ³pias
Ġexigia
Ġcorresponde
Ġdecorr
Ġretain
Ġsoava
Ġdourados
eir
Ġump
Ġpuri
ĠÃªxt
fitri
ĠCoim
Ġreconhece
inees
ĠRomano
Ġfoder
Ġdesignation
oven
Ġpreven
ulating
Ġestabelecido
Ã³nica
Ġmadame
ĠCapitol
Ġstructural
sur
Ġbreast
ĠPobre
ĠPsychology
Ġliterally
ĠMedalists
Ã³te
Thank
Ġadvocate
Ġsurprised
ĠobrigaÃ§Ãµes
ÃŃtico
ĠBody
mother
ĠQuantos
ĠQuantas
Ġmusicais
ĠWildlife
Ġoriginais
Ġbicho
Cop
ĠMoths
Ġlinking
ĠJenkins
ĠStop
Ġdolorosa
Ã³pez
WS
Ġadulta
envolv
ĠcarroÃ§a
ĠAvenida
Ġsovereign
ĠOppon
retos
Ġdesperdi
Ġservem
Ġcristianismo
Ġoverseas
ĠMcCl
Ġcontacto
ĠIraqi
Ġcomputa
Ġachavam
ervation
Ġprices
ĠAA
quests
Mer
ĠVim
ĠProcess
Ġsacola
Ġcleanup
was
Ġdescu
Ġdestroy
Ġrecall
acas
nio
fortunately
ĠAlic
rupt
TH
Ġcaneca
atively
Ġqueimando
ĠEvelyn
Ġsubt
ĠPeÃ§o
reens
Ġtouring
ĠComecei
ĠtransferÃªncia
ĠGarrett
ĠSolo
ĠFerro
ĠBaldwin
Ġinfra
Ġwealthy
Ġruidos
Ġverte
inux
ĠreduÃ§Ã£o
Ġpreocupava
ĠChallen
ĠPrimera
Ġrodada
Ġapproached
Ġcientista
Ġrebeldes
Ġajudava
Ġincis
ĠtÃ©cnicos
Ġaddresses
Ġtornaria
Int
orna
Ġmordomo
Ġfechadura
Ġinspetor
ĠLithuania
Ġbytes
Ġhole
Ġrestaurants
ĠBeatles
ĠZoe
ĠpÃ¡ra
Ġbone
ĠPath
Ġsimilarly
ĠRut
rash
Ġirland
ĠDion
Ġescrevia
Ġsuco
Ġdevolveu
Ġextravag
Ġcometido
Ġovo
Ġutilidade
ÃŃsticos
ĠShield
Ġhoused
Ġtravelled
Ġgrandeza
Ġeman
omy
Ġ)|
reiras
Ġsuma
Ġreceives
arsh
Ġexport
Ġsharing
ĠWindsor
ĠaperfeiÃ§o
Ġausente
ĠMotorsport
Ġdelayed
ĠPeguei
ĠHighland
inente
Hello
ĠEvangel
ĠMickey
ĠCorr
Ġrelacionados
ĠWade
Ġcorreram
ĠArms
ĠCuban
ĠTwenty
ĠSerra
Ġsorrisos
Ġradiante
Ġformam
Ġratings
Ġconcurso
Ġcarinh
Ġrecorrer
Ao
hand
Ġrezar
Singles
Ġoverw
%).
Ġsangu
Ġparente
ĠGren
anton
Ġinterro
ĠDevemos
Ġfeitic
Ġmetropolitan
texto
ĠStalin
ĠMÃ¡r
ĠSorriu
eter
Ġtrabalham
Ġprocure
Ġcollaborated
Main
ĠSue
Ġcalada
Ġpassageiro
Ġchocada
ĠapariÃ§Ã£o
Ġefetivamente
ĠjurÃŃdica
ĠLaboratory
Ġingress
Ġfas
ĠMathematics
ĠGuatem
lical
Ġenfure
ĠVictory
Ġfifteen
Ġemphasis
Ġpsychology
ĠrefÃºgio
?:
Ġumidade
ĠScotia
ĠSafe
Ġdemands
ups
ĠvestÃŃbulo
Ġkeeps
ĠAchievement
ĠCardiff
Ġprazeres
ĠNiel
ĠLancaster
Ġmong
Ãºmero
eixe
Ġrevirou
Ġmonstr
ĠBeatriz
ansk
Ġligeiro
ocket
HP
Ġentrasse
Ġdissim
ĠCornwall
ĠLetras
otic
Ġdominante
ĠRocky
Govern
Ġarrebat
Ġergue
ĠWalsh
Ġjogada
ĠÃªnf
Ġboneca
Ġreferir
vindo
Ġinstintos
Ġsignificativo
ĠZimb
ĠShannon
ĠobstÃ¡culos
Ġrach
Ġpereg
tated
ĠremÃ©dios
Ġcoins
Den
Ġignored
Ġcompetitors
posa
Ġinve
Ġanex
ecraft
lymouth
ogrÃ¡fica
Critical
Ġinteressantes
Ġabolished
SO
ĠJi
Ġattitude
Ġutilizada
ĠFranceCategory
ĠcentÃŃmetro
alam
Ġanfitri
Ġsurprise
Ġreop
[...]
